/**
  ******************************************************************************
  * @file    network_data_params.c
  * @author  AST Embedded Analytics Research Platform
  * @date    2026-02-16T17:55:48+0200
  * @brief   AI Tool Automatic Code Generator for Embedded NN computing
  ******************************************************************************
  * Copyright (c) 2026 STMicroelectronics.
  * All rights reserved.
  *
  * This software is licensed under terms that can be found in the LICENSE file
  * in the root directory of this software component.
  * If no LICENSE file comes with this software, it is provided AS-IS.
  ******************************************************************************
  */

#include "network_data_params.h"


/**  Activations Section  ****************************************************/
ai_handle g_network_activations_table[1 + 2] = {
  AI_HANDLE_PTR(AI_MAGIC_MARKER),
  AI_HANDLE_PTR(NULL),
  AI_HANDLE_PTR(AI_MAGIC_MARKER),
};




/**  Weights Section  ********************************************************/
AI_ALIGNED(32)
const ai_u64 s_network_weights_array_u64[10309] = {
  0xf807e3ea045c3bb2U, 0x291e112248ca0b1fU, 0xad39c590123cba47U, 0x719a140ed8122d7U,
  0x220413de8bf3dcb7U, 0x490def2dd41fffe6U, 0x32027fc2ca4c2b30U, 0xefebe310f2e9ee05U,
  0x2f1a10ffeef9d503U, 0xd21449c9240df2e5U, 0xeebd16f2e5050e7fU, 0xf0f1c2c0ff213f1U,
  0x9f67febf372f60eU, 0x12fee0b17eb05e6U, 0xfe190fede6f032f8U, 0x2000dd0b15c0f30eU,
  0x2d818e410ef0b81U, 0x1dff613ef1c36f9U, 0x150981fbfaba17fcU, 0xfc151aeac2f4e50dU,
  0xe3ced0f0f04cdbf6U, 0xda437fdd30df2dc5U, 0xdecd0ffa2412d766U, 0x382316d22e2cad6bU,
  0xe3d2f03abd261ff9U, 0x81c12e851901f016U, 0xd10e0a253bb4ddeaU, 0xeb0c5312df4213faU,
  0xeed72b0430dcda00U, 0xc50eb7810cf69700U, 0xd722caf5eef32416U, 0x117dbf0250f32820U,
  0x3ba90130aa2f7fefU, 0x370f24a10dc1d616U, 0xef31ff07ca2f040cU, 0xb8d3e97f2ff94e32U,
  0xcd37321427cd0bd1U, 0x91c0d4a4db4d95aU, 0xe0d00b33e9c079edU, 0xcb26d332b12447deU,
  0xb531de781c42382U, 0xd6f9ff3a17d35306U, 0xe62ecee1eac93cf8U, 0xe29d2d0720ef1f81U,
  0xd92bf7ed1f177f48U, 0x31d9faf6dce71258U, 0x43a8fdde98fadce5U, 0x56e8ee7f1d219b48U,
  0xdbf04d1ef9ecca0aU, 0xeddb0ae6d3121af3U, 0xdf1cc6892b17aad2U, 0x46fc1ae418411cddU,
  0xd514fccf7f45bb4bU, 0xe6cbc0fbf3a012f8U, 0xb0722f7fa7ff5e9U, 0xfdca240aeff4fa2dU,
  0x1b11f683fd06bcdeU, 0xeab610bd5dbd291cU, 0xd5eacddf64d555c1U, 0xf8d6eb38f72a71beU,
  0x611812a61857a73U, 0xf8a9f0e0e319f4c8U, 0x2bdcfd090728a323U, 0x232a63dee91f2cdeU,
  0x1bf2232c810a107fU, 0x230befec34d0f641U, 0x3e1a75ec0024e2f4U, 0xf6e0051b2c1adf34U,
  0x41372ad2fa33c8e8U, 0x3fed503b0ee4fef0U, 0xe7f262f2a051122U, 0x44f80148e4200104U,
  0xea0f7ff1ff46f332U, 0xfbcea91a00f1cc3aU, 0xd53f8efa409b08d0U, 0xfeb6f03d81ea4094U,
  0xcf342edf0312e901U, 0x442ed03cf7ce28fdU, 0x241bba3307d8bcd4U, 0x281ead6a5c2d8c7U,
  0x832ec1ca3d1a8521U, 0x27cff256de0bfef8U, 0xd17feec5742cef50U, 0xcd3aa2331b2cd911U,
  0xd00e821ce3f8d2c6U, 0x35d0f1dd0f4d1992U, 0x12eef83dd6bef2c0U, 0xd2447feef25f2e35U,
  0x139b05cec005deecU, 0xc917ec81fa0ce228U, 0x1e93e0cdc8e71ebbU, 0xed909208c4f83de3U,
  0xc3b517f3a3e814ebU, 0x99517faa0360f4deU, 0x5e438ea5ad6e4e7U, 0x71280237fceae1e8U,
  0x1ee138fb1e7fe6edU, 0x525f2fae2f3e83dU, 0x2605eb460e170de5U, 0xd717fddc09e3d7fdU,
  0x27d10cf1a810cf12U, 0xf2ccfd489d6181d3U, 0xa6d3e8c5d532d60aU, 0xcd207d3fc1851e4U,
  0xa90aca81ae29b8d4U, 0x55362342d9140d2cU, 0xe832450b7f16e341U, 0x13d30edade1d6a12U,
  0xfffff36000001ee7U, 0xffff7b59ffffaebaU, 0x57f100004a7bU, 0xfffffb35ffffe96fU,
  0xffff44bf00003088U, 0x1bbcffff8c00U, 0x1d9000001efdU, 0xffff94c800000d5aU,
  0x2140000216fU, 0xffffb879ffffecd6U, 0xffff38e3ffff6d6fU, 0xec43fffff4a2U,
  0x79ffff7937U, 0xffffe5610000c94eU, 0x22e7ffff2f21U, 0xffff6718000059e9U,
  0x2cf907dbdbf7fcbaU, 0xd899bc0eb2fc23ceU, 0xcf23f8effafcceedU, 0xf0d707fde910f2dfU,
  0x2dbd1d5ef1cecd6U, 0xcb81bdfadbff31cbU, 0xb42224e91801f5d6U, 0x22d1efd31ee511d0U,
  0x1621dae2ed2d16f3U, 0xdde3c6c7051e36baU, 0xb60c2606ff1c11baU, 0x210c0d15faff15efU,
  0x292bc7f40e28e9f2U, 0xf30de91ee8103422U, 0xe01426f6141e0b20U, 0x14f839070dd3f3e9U,
  0xcf0cda4ef14faf2U, 0xfd09e1d7051f3abeU, 0xac0b10f5fffb0ca9U, 0x1ff325fc21cee7feU,
  0xf10bad3ee26f609U, 0x9fcf901102e1214U, 0xeaf81e1ae3192309U, 0x221225e416b8ff20U,
  0xfa0ab1b8fb15fb16U, 0xe9f8ccb5ef1511cbU, 0x850118f80cf72c84U, 0x1c061ae4f6d71ed7U,
  0xec16120dcbf401efU, 0xf0f804f0f20400f4U, 0xf1bec04fd010e16U, 0xef020dbc0ef901d8U,
  0xf1f04fec6f1fee6U, 0xede61cf7ec00f0efU, 0xf736d70e0f0df009U, 0xf3fae8bb02fb1bd8U,
  0x10f0b09c8faf8f2U, 0xf5e50df8f6e4e8fdU, 0x1015e2ff040c03f5U, 0xe4fdf7b5f61f0edfU,
  0x409051890d8fbd8U, 0xe5ecfdeef7fed9edU, 0xf810d908eedcf404U, 0xeb08f1a2eb022ff2U,
  0x1315ff06a1dbeee4U, 0xeaf5f101f3fcd801U, 0xf24c700f9f007f5U, 0xea12058cd60320f3U,
  0xf21fe0291ccc402U, 0xf10005fafcdcddfcU, 0x2fc424f2edfff5U, 0xe610ed8ef81a04f0U,
  0x1cf7fb1288cbd3f7U, 0xecf50102f2edb9e8U, 0xf723a203e5f11508U, 0xe8fdf481e6e510e3U,
  0xf8021517fdd2f6fbU, 0x140615fdd5d212U, 0xdf501e9f60be51bU, 0xfbfe24fa1a0f01e2U,
  0xe2000c0d06b00ffdU, 0xf20a0410e9fcc308U, 0x10fefffc0706f114U, 0xfc0a0d054b1affe9U,
  0x122020730b4f4eeU, 0xae7f208e7f2cb0aU, 0x71708fdee07d613U, 0xf8fef9102216fe0aU,
  0x5170201159800d3U, 0xfbefdee7f6e0d1f2U, 0x1521ec04fcf6d1fbU, 0x103ed223802131cU,
  0x2240b030990dbbdU, 0x9fad0f106e7d0e7U, 0xf21714f707d7fcf6U, 0x1106f02239f9ee28U,
  0x181efefcfb81b8c9U, 0x10f9d4d8fef4aef0U, 0xe80ce8fa24c6f9edU, 0xe5ebe2142fe0ec25U,
  0x232bf7f4f685dbbdU, 0xfb01c5d313dbc2e7U, 0xeb1e08fb1dc903f2U, 0xf3cd0236e90e10U,
  0x8091909e5f6fffdU, 0xfed0f5061416f9fcU, 0xd2130009fef7ede9U, 0xf117fc02080cefeaU,
  0x3fff0dedf19e9dbU, 0xecd1e2f6fafb01e7U, 0xc1140f0705e400cdU, 0xfd050a010600f4e4U,
  0x11eedd504110d01U, 0xefd6f4f2071f1801U, 0xb80eee1508fdf9d7U, 0x170109e618ee08e7U,
  0xb01b4b2ea040e19U, 0x12d603edfb0b07faU, 0xb9020d080f00fdc5U, 0x10e90be202e2edecU,
  0x1003b5bff7110518U, 0xedfbdbc118fa0aceU, 0xb608fa0efd1405a4U, 0x1b0f29e9f6ecf2f1U,
  0x1608b3ca0116f91eU, 0xfe070d0a0d16140fU, 0xcc0a060cee141307U, 0x13f50bf31ad0f80aU,
  0xfef28382e41d0c08U, 0xf4ede6cb0dfcfed9U, 0x810a17f6f007008eU, 0x6ee0fe20dce0802U,
  0xfdb93506f9370e17U, 0xfef91a0fe92d3200U, 0xfbe21a052c0c0304U, 0x1c23513a080ff901U,
  0x6c42d0b0b11e155U, 0x19ea2037c62023f7U, 0x17050c4010edcd3aU, 0xf9381b1ffc1f1132U,
  0xdd220d15fd260f3dU, 0x3b0a434039002631U, 0x42042045fa00332eU, 0x2252730808122629U,
  0x420c0625362b0f52U, 0x94a7f373b361164U, 0x50f71b29fbf54f56U, 0xf86a6e3e34102e08U,
  0xece7433b3d1bee42U, 0x1c324b10d1fd09feU, 0x3101221d372fb543U, 0x364223f91f2d020bU,
  0x3a1614f1ff171842U, 0xff282efadc342316U, 0x3bfc4a512a282cf5U, 0x3074f3e3c27e21aU,
  0xdd5ae723fd294755U, 0xfe29291af70c0f11U, 0x19f7264a39320e02U, 0xf833fa2019022319U,
  0xf6ea201ae8f3e9cfU, 0xe40dd1062ae5e11fU, 0x17f0e0cb07d9d507U, 0xd06db0ffd0fdad8U,
  0xe8db0c110c0cf3baU, 0xf7c7d121f9f609U, 0x60ae6dfeef9f4ebU, 0xe015a203ed10d5e7U,
  0xfaf9fdff15f104bfU, 0xbfcbfc6eb0e02e9U, 0x14f4e8d30bf7f4f0U, 0xf90481fee003ddf3U,
  0xe8eb00ff0af800a9U, 0xf3efafaafef7e5cfU, 0xfcf10ddb16eaf1c8U, 0xfce897f7f3efe2f5U,
  0xf8e9f9ff1b0428bbU, 0x13dad6c7070806e1U, 0xfd05f8141a23efddU, 0xe1e5820e0cf9f809U,
  0xdaf6fbe310f42eceU, 0x28efc28ef3e7ecb8U, 0xd20f18ee1d2307c3U, 0xf3e5ab08f9ea28f7U,
  0xfffce8f5380807fbU, 0x16f9cfb0f7e20dc4U, 0xec00fbe2100bf8c8U, 0xf4ffdb3415ea0620U,
  0xdd1deb0b0c09b707U, 0xcf50b0d0f1215faU, 0xfff923fbf1ab12edU, 0xdf1030bf301f50dU,
  0xec26ec05e80d9707U, 0x1501f1ec280d12ecU, 0x8fe1702f691fefbU, 0xfa15fafcefe5f10eU,
  0x4f60df6da11cae6U, 0xfffcec12fe05ff10U, 0xfee70002dfaef9fdU, 0x204e3d6d905f7f3U,
  0xe6f8fc00f20896ecU, 0xf3fcdaf700fafaf4U, 0xec02ffe2ca8ffb00U, 0xfefaf0ebe0edebedU,
  0xeaf61006c304a9f2U, 0xf70207fe06fc0fU, 0x30adde2d294fef4U, 0xf30af5d3f0f0e6f5U,
  0xedfa0705d30084faU, 0xf5faf40afdf304f3U, 0xd0fdaf5bd8109f2U, 0xf706e9c7d703d2f3U,
  0x10fb0f07b8f98defU, 0xfef5eef2fdf0f30eU, 0xeee5effbbc9d0504U, 0xf7f7efbee3e6f1ffU,
  0x17fce9dfd61905dbU, 0xe4adf2efe0fd02e0U, 0xe717050900f0f1d1U, 0x15e3ebed150e0ceaU,
  0xf6e9ccb7e61104ceU, 0x588dfdccc18fbdfU, 0xbb260c0aedfee7c3U, 0xf6d008030e0707edU,
  0x1fcc4bdfb04f607U, 0xfbfcf5eafa010dc9U, 0xb2171e1a00fae5b6U, 0x1608f3f20204fafcU,
  0x618c0eaf512fa17U, 0x20041504060f270aU, 0xf21d00f2ed220918U, 0x1a090be3f6d91414U,
  0xf113a5a8110e090dU, 0x401e2b4f51a07caU, 0x9e0720f2f11f09bdU, 0x50418fc18da1119U,
  0x1e0f95c20d07251bU, 0xfc0c0d0211210308U, 0xdd1201f6fe191df4U, 0x70005dd03ca1014U,
  0xef03818f121a1d10U, 0xc00cdaffa0ff8b9U, 0x880ffef8041b0b95U, 0xfefb17f6eec0fe08U,
  0x4b22c2fe2a19b613U, 0x1fffe7ea300c25fbU, 0xde1128e20aba0c04U, 0xee6082bebd7b927U,
  0x4f11d3fa0c088132U, 0x18f7fc2022162402U, 0xde0429d3059626e6U, 0x801192be4f9b21fU,
  0x25ea04f9100ee5f7U, 0x15ff2c14fc11fe10U, 0x1f010fc802d5f9f9U, 0x5052a08e625f715U,
  0x1f014eafe079a07U, 0x11eb010cf8070015U, 0x1ef110baf4aaff04U, 0xfefb1914d2e7ee0aU,
  0xfdebe8d8f5048409U, 0x3fe1f2ef4fb04faU, 0x30e302caebacf805U, 0x3180dffe0f5c810U,
  0xe7fa1307f80c8203U, 0x3fa100cfaf30a00U, 0x1cd60acfd88ef9fbU, 0x161ff0cbe6a8ffU,
  0xeb01f5dee0fc9815U, 0xf4070d1a02fe0414U, 0xdcbeffa4d0a20800U, 0xfb1d1203d5f7daecU,
  0xfcee2709284f4a33U, 0x11df5a30f03d452fU, 0x30cb06561302d011U, 0x3a2a5d040f1426fdU,
  0xc9ebf82a0e07042fU, 0xfaee5e21e3ee2f16U, 0x12fb2c4e1ef7ddecU, 0x2f0810f929394111U,
  0xe73743482f44283aU, 0x21c43ef29341d2cU, 0x39121c2e114c250fU, 0x32504d11281f222cU,
  0xc313b0711164e19U, 0x3411624d2a1f2a0bU, 0x23f41d3b44262f2bU, 0x2d061f2c1d19151aU,
  0xd806fd1a2e074205U, 0x2d0466140dec1226U, 0x48e34c45353b2e04U, 0x1701101f4f26e725U,
  0x2128270e23512249U, 0x26227127fe27230cU, 0x41f6472a1d371b41U, 0x3432324043290417U,
  0xfa7f4430052e433cU, 0xee16372a2e1f1346U, 0x44d33b41293d442fU, 0x11444df41b1bfcefU,
  0x19f1f9080318ebd8U, 0xff87f20cdffb06e7U, 0xd3200e12060b13fdU, 0xf30af0ef09fe08U,
  0x1e5e8dfedfcfbdfU, 0xef8bd6d9c7040bf4U, 0xd110f40b000d03caU, 0xf6ebf201fdf2e7e7U,
  0x1007dfe50311081bU, 0xeecf4e6fd1811f0U, 0xd213fbfa020617e0U, 0x41323faefeff30dU,
  0x130dd810021af629U, 0xf6f40e18fb040913U, 0xe30c1706f70f090aU, 0xafd21fff4e80ef6U,
  0x618b3dae201ef1aU, 0xffbe4d1f30af5eeU, 0xc3fff300e8f93fceU, 0xcfc27eb11ee0c10U,
  0xd2aaaddf916ff0dU, 0xcda06f3e9021003U, 0xc80a1206ff1245eaU, 0xfb0f2bf001dc1b14U,
  0x3fe81b0fc010706U, 0x3f8e8af0d0917ccU, 0x96fbff03eeff198eU, 0x15f924f613bd1812U,
  0xfd21baf0fb240cbcU, 0xf1ccf20c61e802d7U, 0xd11d00e3d3f207f5U, 0xe1aad5c671fb0418U,
  0xebffd8a1000ccaffU, 0xeedeb3ea43e713d2U, 0xda3d01bac8e6ffdcU, 0xe3b2ccc8760df603U,
  0xe057c8a4ca45e623U, 0x1308c9d1650841f5U, 0xedf8fac1dcec91d0U, 0xf5bcd4ec6fe92709U,
  0xd3d3dc01c355f21aU, 0xa0c21f740204c14U, 0x2ef72bb5d5ff3503U, 0xfbd1c7cd66ce07ecU,
  0x3249a9fd93efdd4U, 0x1c33d4f620183bafU, 0xea1c1ba9cad3f3afU, 0xe89b9fd973bc42efU,
  0xf56bbfd00831fd1aU, 0x2bc1d921f40a4122U, 0x2e321b7c3dc6001U, 0xba8e2ef7fcd6817U,
  0xf3069ca7d63a0a08U, 0x1e00d8cb1aed20a9U, 0xc2f114d4b9eb15b0U, 0xef0ccc065f16211U,
  0xea060bfcc900ed13U, 0xec0700f0dadbfbfbU, 0xfd01e80ad8eb1215U, 0xee10d7bbf71004f4U,
  0xe0f9fef4b1e7d9e4U, 0xfcef10e8ebf0e309U, 0x6eecb0fd6b007fcU, 0xf1eaecb3ce040103U,
  0xf3f1ef10c3e40bf7U, 0x90c1c16fae1e0f4U, 0x103c21de3fcfcf3U, 0xede8daa8f3fd1af0U,
  0xe0ecf5fda0e0d706U, 0x4060003f4f9d7f1U, 0xf8ebb8f5fcb71009U, 0xdae9f5a7d71015e8U,
  0xf5ed12098beed40cU, 0x717ec0df9f6dc00U, 0xfcecc9fbd3b1f80aU, 0xdf0fdaaae4fc00f3U,
  0xf102f316addcb2f0U, 0xfd13ebf0ffd4d309U, 0x12e99f0ac5b91ffeU, 0xe3effaa2d4fc03fcU,
  0x3190ef881eaaae4U, 0xf91307ebffe2cfebU, 0xe4eac3f7d9b41eedU, 0xdc09f2abdb070411U,
  0xfc0be4fe49e60c15U, 0xd6e42bc01ee4d5c6U, 0xe7cbd937e6321fdcU, 0xf4d53de22de2090fU,
  0xed04d8f71b280429U, 0xe2f34bdf0dd81cffU, 0xf0c31ac528220ffeU, 0x24c21fec0ac100e2U,
  0xcef01bffefc9392aU, 0x8f034e6fd0710e4U, 0x19c6e4b8cc021324U, 0xf3272c32da0c010bU,
  0x40a272bdfe3e154U, 0x3ea5f102bd70e04U, 0x4b9e3dbe4f02ef9U, 0xe80d4528f6f7ca11U,
  0xceb22421e7dc133fU, 0xe2e95a26f3210f07U, 0xfa04debee3f5b020U, 0x11113208d3fabb08U,
  0xb58e2c0532081218U, 0xe7de600ae905f5eeU, 0x1be2d3dbdee0b2efU, 0x1d222c360cf997d5U,
  0xfc2fced73ffde46cU, 0x2e2d55ec200b07d9U, 0xeee922def41422faU, 0x1105623eefc08132U,
  0xeb20f911e2f708feU, 0xf40b27fb0df6fe14U, 0x516e013f500eb15U, 0xf2fdf8bb02140eefU,
  0x7f307feaaf40c19U, 0xef21031711f706f4U, 0x181fe9f2fa14ff1bU, 0xe5fcf7bef9f1f4edU,
  0x180d1701b4f404faU, 0xe0fffeecfffbf4f3U, 0x916c4fb0811e305U, 0xe4e7edadf3fa09e4U,
  0xfa09050ca0dd0006U, 0xfbf5f3fffae1e713U, 0x1109e5fa0215e2f9U, 0xf1e7d9bdf40c12d5U,
  0x515effa9ce6f4f5U, 0xef02fcf1f8eddaeeU, 0xf209b7fe05f1fefeU, 0xdbe0df8eedf904eaU,
  0x2602f004b8cbe504U, 0xebf7ea0307e6ec10U, 0xe60dbc0908f8000dU, 0xde03ea94db0de2d5U,
  0x1001ec0f81e3d804U, 0xeefd191104e3cc0aU, 0x51ba8e8dbe60606U, 0xe0e4cfa700f60ee3U,
  0xf31008edc7eb02ffU, 0xfced0a1010ed05f8U, 0xec06fd1907080aeaU, 0xf002e1b50d17f8f1U,
  0x160c06fc93ee0000U, 0xf4ed06f4f2f0e800U, 0xf609d80103ea190dU, 0xf2e7fdaded09fffaU,
  0x140806f99bfafe0aU, 0xfcf60d1005f0e515U, 0x120ac72df6fdfa05U, 0xf6ecd7a605031ef2U,
  0xfcfe09039fe2d6f1U, 0xf8f509f904e0e70bU, 0xf703ca2704effa0eU, 0xd807e8a4e4180df5U,
  0x5f4151992f2d4f6U, 0xebfaff0f0cf5f8f9U, 0xe30205f3fc0fU, 0xdef5f9bde809f7fcU,
  0x180cf6f481dcc412U, 0xf105171a07d8e2f4U, 0x123d509fded16faU, 0xd80802b6da02d3f2U,
  0x1a0102f78cf2d70aU, 0xebf813f415efe909U, 0x1510c51cfee11002U, 0xeafae197f002ffffU,
  0xd0110f0ba906e0b3U, 0xf037b6e45003fa22U, 0x3d9803babceb3735U, 0xe01ec6e6e32bd0deU,
  0xdb130113ed07cf9aU, 0xd62eacde4ef114e3U, 0x28a600d5ecfe231bU, 0xf108c3b1de09eaefU,
  0xea160cf1d8130c8fU, 0x1dfcad3121c09faU, 0x2ac5f5d3ef07f50fU, 0x8d98ebc2617fce5U,
  0xcdd5f9e4d5400687U, 0xf7fd92d9fc032ee4U, 0x5b722bce10de805U, 0x10ea81dd0b24eac0U,
  0x1513f7eae814f295U, 0x6f9bab9e31225f3U, 0x15cf15bec9f1e003U, 0x25d19cdf0c191cc0U,
  0x50ff5f7ed2c37c7U, 0xe97dbbda1c3233e9U, 0x9e02fc8fb3c00faU, 0x11cc84c0140f1ed6U,
  0x140cece0cc2b3ebcU, 0xe205bce025214aebU, 0x16df16b4e30cdaf7U, 0x12c7b8fb010b17eaU,
  0xbb0604fd1d0afd2eU, 0x1860260c7fea0ff5U, 0x6b1f5ede0ed2bfaU, 0x151c0c15deeaff09U,
  0xd524f4131907023eU, 0xd97e561449d81c13U, 0xfab316ec13ee4040U, 0xff0d3329f813f004U,
  0xc6dc1f0402f1f3fcU, 0xebf80a13130d1802U, 0xf5a8edfdfffdf228U, 0xe918f606e23527cbU,
  0xbabdfe1a1b222314U, 0xf4003d291004fc14U, 0x24a6e5fbcb08d4feU, 0xf810fe2a1315f3fbU,
  0xe8e8fffd02f81e0aU, 0xfaec492e10f01413U, 0x2aa408e5f7e2e919U, 0x307fa290900fed5U,
  0xbfbd130038f003f0U, 0xddfe093713041124U, 0x22c907c8d70fde1fU, 0xda1819340926f3f2U,
  0xb0fb2b1c01ec39faU, 0xf120e3916f11d3aU, 0x1ca725fafc0c03feU, 0xfc170433dc20fad7U,
  0x16fa00ede1fc09f1U, 0xfec6ea06e702e6e2U, 0xc523f901fbf8d8fbU, 0xf4f30febecf5fd07U,
  0xe1c8b303ed0eeeU, 0x7b4e6f3dff4f2ddU, 0xd825e2f511f7d9c9U, 0xfcf6f0e403f7e0fdU,
  0xcfcd5cb0f0efb1bU, 0x160ae0ef0b050cfaU, 0xda140114010916c5U, 0x1f1805f1f7e9f6faU,
  0x1cfbd0ef11faf6efU, 0x31919f9f5f5f5f3U, 0xd90ef7130b10fcfbU, 0xfb02040106d51128U,
  0xfa1baba10dfb0ef9U, 0x414d9c5f8fc00bfU, 0xa10af016011905b6U, 0x400fcf814da05feU,
  0x241795c6ff0e27f6U, 0xf23ffebfd1f19f9U, 0xd307111df22511eeU, 0x5f81af508c20105U,
  0x307858115fe070dU, 0x1b0ad6cef11b04c1U, 0x9d0e0a1c130e049fU, 0x10c07fd04ae1d08U,
  0x17ec0bf7f2f500e6U, 0xe491eae0f5f7f7efU, 0xd820e0e8fddd04e6U, 0xe7f9ced0d9ed0302U,
  0x9e50cede416fbc8U, 0xe181ded2f307fed6U, 0xe413efd3d6d5d7cfU, 0xfcf8dc020907e5fcU,
  0x619e4dff81c10d2U, 0x1a92fcd9c213fdd0U, 0xe120fdf6ff0b06c5U, 0xf9e9f0f70aff17fbU,
  0xf30fc6db12200edfU, 0x1e99e8c3c9fb09c7U, 0xc318f70209f80da8U, 0xe8d60814f82c12U,
  0xfdf8d3e7161bf819U, 0x23050eecfd061df3U, 0xc30522f7f4efeadaU, 0x204190bfec61722U,
  0x4f8d50b1a012b0bU, 0x20fd2e1f10210c22U, 0xf411060efc11fb18U, 0x71b05ee08ce260cU,
  0xfb0dc4bff5f8f70fU, 0x1fdfe9db1f1610cbU, 0xbf04fa06010c0aafU, 0x150101f716da0ffdU,
  0x3c7f712f301dff2U, 0xff27030c0527fd08U, 0xf5f301fe0af6a218U, 0xfc0617eddc03f50eU,
  0xe2d10f00fb173cfaU, 0xfc0a0215e20300f0U, 0x1ae9f316055facf2U, 0x225190ee50016f2U,
  0xec0118f31208d2f6U, 0x10fce00dfe0dfdefU, 0x1a0a06f9f9eaf90aU, 0x9f71c10ca00fdf5U,
  0xe14040927ec30e8U, 0x1a26f50e2618f7e1U, 0xf40aef130426f5efU, 0xc032513fa0d0d1fU,
  0xe1f407fb27f26c11U, 0x2414e102f6f510efU, 0xfcf3041a2059e81aU, 0xaf20015fffe52f6U,
  0xfe2c0e0f1ff862fbU, 0x1816fbe906122ff3U, 0xfbf117333c56e90eU, 0x1918ff0002fc7d17U,
  0xde12110c30e87f0cU, 0x22fef2f005f91bf0U, 0xf9f524292250080aU, 0x70d0d0d240e5a1dU,
  0xe81cd6ded2f8d244U, 0x2f32d0815fa02faU, 0xdce1fc0df1d1fed2U, 0x6ed04e4f2dfe5f5U,
  0xe71af4e4b3f1ab34U, 0x70b53f02200f606U, 0xe5f3d5dac7fcf2U, 0xfce32ad7e7eddcfeU,
  0xf0fe0206d30e083eU, 0xff065a1a0109f90fU, 0xf912e91b0101ed13U, 0x4222fd1f60b0713U,
  0xf1fb12feab03ec14U, 0xfc00401506f8e714U, 0xebfcd21106d4f11bU, 0x30327b5e00b1703U,
  0xe3fbf7f4900cc814U, 0xfcfc2f150803f107U, 0xe4fac9fdecd6f617U, 0x7021da900f901f9U,
  0xeb0102fc93f9cb18U, 0xfffc20f40808f201U, 0xf3f7d307ebcbfdfcU, 0xfcf50ac6e51fe9f3U,
  0xe20dd9d6810ec83cU, 0x9043f000907f71dU, 0xebe4d7fae7cbfe11U, 0x3f41bb4eaecf1ffU,
  0x2b0b0bfacd12f8c8U, 0xbed20ea31ddf19U, 0xe3e1defe205fa07U, 0x35002f001809fae4U,
  0x2a1d040017eef8d3U, 0x6b8bbf1a4e31217U, 0x923ff3707ecff10U, 0xe5022ad70d18fef2U,
  0x10d9050cc11fe8b2U, 0xccae2fcb32ae1f6U, 0xf27d50a120cb702U, 0xbe6eae634f7f5efU,
  0x14010b020619f7dcU, 0xfa2cddab91513deU, 0xff2ff068f82bc4f2U, 0x504e1c45f0dcdedU,
  0x23fc1709dfebe331U, 0xeff5fc10100d1d1dU, 0x709f848d7dfebfbU, 0xcfb43ed1d09e304U,
  0x2b050c1dd2ced514U, 0x10051d20e443f61bU, 0x172cf65f22f01501U, 0x24142dda5f07ec1bU,
  0xe0205f900dc078dU, 0x7c184d3811504e2U, 0xf416f66b383fcdf7U, 0xe013e0e955f3ee17U,
  0x3311f6f729c4fac8U, 0xe2daf6e698ef15fdU, 0xe82cef020404c3eeU, 0xe2de281c2305e8e8U,
  0x26fe1406fffc11d0U, 0xe9ce050ea9eb07edU, 0x53100d40c12de00U, 0xcde11180ff8d9baU,
  0x29dc20f705c6f5eeU, 0xe2d7fde3d4ffcfeeU, 0xfe3709000e1cce09U, 0xd5e723230f02f8ebU,
  0x18ff07fe50f0e5eaU, 0xd3c4f4fdc8cdda05U, 0x1223dc19f11fd1f3U, 0xfc0206431df6eae9U,
  0x90c00fa19faccf0U, 0xdb00fb0b050ef5f1U, 0xff20d921eedecef5U, 0xfc0e134137e8d2f8U,
  0x2b3b21040af6da00U, 0xc802e9e90309ddfeU, 0xfd1f2c2d07dc040dU, 0xd5f7f2fb490cca10U,
  0x302200a7f0ddee2U, 0xdcefe5d70bcf1edcU, 0xee0726502b0c2e00U, 0xdf5f9583418dc01U,
  0x20a62012da0ae6bcU, 0xe481fdd006e0fbecU, 0xed21f9d5eec7f5eeU, 0xffd8dde505faeeeeU,
  0xfbd80ee1dff503ebU, 0xf496d2c4fdf3f8ccU, 0x817e9c6c4dd09c1U, 0xe0cecff0e60c0804U,
  0xf2180a06e6080f00U, 0xf4ffe4d6f8f0eecbU, 0xed170104ee00beb7U, 0x1219e0d719fb1607U,
  0xf323fde91df71155U, 0x2e7fef3290ef9faU, 0xed1b19ea081f1be5U, 0xe6ec13f12ee234f2U,
  0xe8e6e3e2040b42efU, 0xef5f8b7fc0612dcU, 0xd70d24eeed1c099dU, 0xf0dad81034e83406U,
  0xdcd9edf1050e5b0bU, 0xf96619e3dafffe04U, 0xcd0419fd111c14d7U, 0xfae4eef42cf73b09U,
  0xdf16afb41716340eU, 0x9eef8c1131015b9U, 0xa10a2dfd0b310f83U, 0xbf3e81031c8471fU,
  0x915d702dd0dedf3U, 0x820cb10f22810ebU, 0x1eca26de3102ad08U, 0x2207210ad90bf903U,
  0x63c0aed0a2f2f10U, 0x2947d71922ed211cU, 0x14c12fd42a4c8f1eU, 0x2d1b3232d0d2f10bU,
  0x122e16fd11ebd8eeU, 0x3b04ce09051b2009U, 0x20de03cb152661feU, 0x35151316b5f6b2f7U,
  0x33400e11fbfc1ce6U, 0x3e0cfef710421bcaU, 0x9737e1f3052bf1U, 0x13f50438f4f71923U,
  0xb0a513f00f2758e7U, 0x2f3af1abd4200f4U, 0x29d9282c4b36a1e8U, 0xea09e00913113622U,
  0x8caef0204f3d76d0U, 0x16adc2c8e3ff06e5U, 0xf5d9131b5a6e88e7U, 0x43f3d54024dd541bU,
  0xde18fae540214419U, 0x34fbb211000640d1U, 0x149b49094c7a15fcU, 0x45123448eae27f27U,
  0xdde819455001f147U, 0xc1f5821ea301712U, 0x45f71a172b2c1e0fU, 0x282e0c3a2d1ef1fcU,
  0xf0eb251c0e16e25dU, 0xfd034b0701fb202fU, 0x32e526461321fb1bU, 0x204857201b3708eeU,
  0xd4e6260a2c0e022dU, 0xfee978382c37032fU, 0x3fda37301e0c4541U, 0x1c2d401a255c0131U,
  0xf0dd0f3b08202a3fU, 0xbe07e36250c2643U, 0x2f0230fe01f0180fU, 0x2e144e0c1142153cU,
  0xfcea40370f23164bU, 0xfdda63360407332eU, 0xbf340162df2d30cU, 0xb4aff02391005U,
  0x6171b2005100434U, 0x131e7f3afc37182fU, 0x3a012b483031ee0cU, 0x2628550d093cdb0aU,
  0xe015330947062636U, 0x71d6e32eb1b2f5cU, 0xf9dc27330bffe61bU, 0x1f3458421242e629U,
  0xc24f2510230e1531U, 0xe66f031b37eae91cU, 0xf6b11cdd13db06f1U, 0x2404e8fd0af83afeU,
  0xc073328f6ed2806U, 0xd15d26312c0fccfeU, 0x37a5ccc5f8f236ffU, 0x4e3f3f0c52215faU,
  0x3d63511f704e00dU, 0xfe24150cfffa1518U, 0x14a2f6fcfce1d716U, 0x1524d120c03e0a13U,
  0xc6a50b282606f4feU, 0xe703353beffecbf1U, 0x30a116cfdfdcf409U, 0x1bf71137cc47031aU,
  0x59641302bd53820U, 0xcb2d360fda28ca00U, 0x13a5d3ec0c0df717U, 0x27010a36c347c9cdU,
  0x9f813d1f41d014ecU, 0xeb103e2d1509ef05U, 0x55b70fe5d726a61bU, 0xf910fa15b5520fd1U,
  0xb987253d04e02df0U, 0xe716413c21ecfe19U, 0x3c5e0160a27ed2dU, 0x1a2c11e7e319a9f2U,
  0x4e1d00dde0f75457U, 0xe4052feb40dbc508U, 0x43cd1f6d7dd4ce8U, 0xb1c240ed29e917e8U,
  0x4b11eeedd505f57fU, 0xe5534f0539e208dbU, 0x1328daf0c906280aU, 0xa9d279f0e908ebd9U,
  0x31f62712bcd31117U, 0xb3ff61e60daed734U, 0x2728b6f2dcff0f0aU, 0xf5f342d0323019e8U,
  0x10ff05dde21f283aU, 0xcffd68040dac0420U, 0xeb28c0b4ffe9100dU, 0xf0e94bf9174e29dcU,
  0x602fb2401142661U, 0xbfe9721b00dbee30U, 0x2724dec0cb1e0811U, 0xd8dc49fd142e14cfU,
  0x6f4fadd130d0e53U, 0xad053d1e18d50824U, 0x1f20d1da05230ffeU, 0xaeed38e63120f5cbU,
  0x19fee4f106f0fa49U, 0xca0c43f305ba1421U, 0x1e380313e0dbfde2U, 0xf7c3520228f5e604U,
  0x20d6fbdbd1d8d6d7U, 0xe9dbd8e5cd0007c6U, 0xbf28f520f906b4c4U, 0x50704f402fd0821U,
  0xbe5e5b6f9deedc3U, 0xfdfaaaf5000ae9c4U, 0xad17d10d0d11cdcbU, 0x1502c3fde4ffe4f5U,
  0x12ecdadefef21417U, 0xe30f8e237feebd9U, 0xb520f12215ea40cbU, 0xf90b1c1f20fcf214U,
  0x20f0f2e0ebeff908U, 0x2cb620e81cfbf9ddU, 0xc005ee26242df010U, 0x1d17021118f72d38U,
  0x221fb29a06f300fcU, 0xfeeed8b4e1edf1c8U, 0x810ae3281ffdf3c2U, 0x4e90d0523a8ed0cU,
  0x203899c301f437deU, 0x1428e5f327ee05e1U, 0xbb15f841100a12bfU, 0xa11150429b53314U,
  0x3f6b0b2fc0135ddU, 0xc18c1b3f2e804b8U, 0x9b01f024fa2cf8beU, 0xd011d1b03ae231aU,
  0xfeba0800f814f90bU, 0x22eaed02d1150a03U, 0x3d209d6f116a603U, 0xd03fcfcb1ebf123U,
  0xfcf4f1f9251d0cfcU, 0xff0cff0ccc04eef1U, 0x602e724113aa901U, 0x1c080008d5f4e8fcU,
  0xf10a150210240b48U, 0xf81a351b05140c34U, 0x1d0112f8faf6ec17U, 0x82b3207b91ef525U,
  0x42170b2f040f2d29U, 0x121d3b3a0437fa31U, 0x35eb17050527132dU, 0x52e4dfcf016101fU,
  0xf40ce8fe29f05af9U, 0xfffecaf4031c0fd0U, 0xfbd21a02203edd0aU, 0x5f9e2ff140160f3U,
  0x54e04eb31fe4afcU, 0x3427c2dc0526fefbU, 0xedeb2b190b66ffedU, 0xf709f21c11e76f1eU,
  0xce10ffe523196b0bU, 0x130dd5db20f505d2U, 0x6ec160f2760fc01U, 0x9f304f516f77ff0U,
  0xef1537490113e457U, 0x224d4a0246111e1dU, 0x2fba0d3901f05138U, 0x2664461b1c1ae707U,
  0xf70825271a0f0660U, 0x37f514a34291226U, 0x14bf1e36311b4016U, 0x4586d2106faf20cU,
  0x1cdd4a3812202239U, 0x100c3e552919091eU, 0x3dc7290e1502e530U, 0x2814483b0326d91eU,
  0xfff238472c1d2902U, 0x19bf3d22453f2322U, 0x3bf6184a25090f4fU, 0xa192923f85d0010U,
  0x140a0c41122fef20U, 0xa82d3b0a06044cU, 0x1be2e9f2f314100bU, 0xec353e37f3210700U,
  0xd520241b37f0530cU, 0x2c0037220df41532U, 0x1df42129fc381827U, 0x292f303f3c5ef207U,
  0xcfac3d17fd3a152fU, 0xfb0f4b1540ff0c2aU, 0x3be8f12415211b3aU, 0x94e0ee9292923f6U,
  0x1303171af4a21a37U, 0xf0df07170bafe8e4U, 0xe030e6c4ec1108e7U, 0xf600f2de321cf2f0U,
  0x38201bfeca81d610U, 0xbeef2b29d6cec0ffU, 0xec32ebeb1900061cU, 0xdf0538daf7df0bf7U,
  0x1aedf113d8a59afaU, 0xbaee440e04d9bdffU, 0xf9faf6edf9f30c23U, 0xcfeb16bdf7eeefbcU,
  0x1df318f0ed9d831dU, 0xa7f72722f8c4de1bU, 0xe30de7d5f8de1d20U, 0xdd11290c261bdbb5U,
  0xe9f91fea02c0ac25U, 0xbbf8f9e80bb8e3f7U, 0x827d70005cd1315U, 0xc9f725002cedecc6U,
  0xf0ae719f19e8117U, 0xadfc15eb03a6dffbU, 0xd2adbf018de1bffU, 0xe0ff0ce62b10cbcfU,
  0xee0fe6f6dbc1a828U, 0xb8151ff713c9ed19U, 0x14ebe8f01ff81dfcU, 0xbb1346c932fecefaU,
  0xc8fa1ee4cd17ece2U, 0x112dce00f51af900U, 0xec7f80a11e28201U, 0xfe0b1bfaced9ecefU,
  0xe525edf4ed0c2fe8U, 0xff4a011ce814efd8U, 0xfcdff4490241c009U, 0x260b33e2dd230e00U,
  0xcec41cfaf5e8ebf7U, 0x1628e1ecce1ceb0eU, 0x1bc1fb1e32ffdcefU, 0x340815200107f21cU,
  0xe6e5f6181e1039d9U, 0x277fbff6eb021ef1U, 0x4c335413b51e909U, 0x8fdf821f91512f5U,
  0xbf1e25ff28236b14U, 0xc20f8e53b0ffedfU, 0x1d11b0c335df408U, 0x1c0920f3f7105310U,
  0x2ae6f41b1946fbU, 0x3d16c1eaf9373bffU, 0xf8bb0a3e284eebe9U, 0x1d05f60519f75a36U,
  0xbb04ffe51a1c66fdU, 0x1019d0fa09052bdeU, 0xfac304634a4ab408U, 0x320afdf92e17492dU,
  0xf0f90a12e5c7ec81U, 0x1cfdd4e4f407ddf5U, 0x809f50b08dbb30cU, 0x125bad7ed28fa3aU,
  0xe7d82c09f3e5078fU, 0xcf9b5c9faf1f3e2U, 0x414fb27190bd401U, 0x17228d0d0a30ea11U,
  0xf10c091d15d4f0e3U, 0x1a11bee60e15e6e9U, 0xf5f5e72c1ffe0b0fU, 0xe61b00eb25f1083aU,
  0x900182003eafa03U, 0x1705fff9110bd601U, 0xcfa0831f8d51607U, 0xd50bf608fe0fed3aU,
  0xf4ef10fdcde0269bU, 0x1714bbc7cbf6c2c3U, 0xeafc11242816f4f9U, 0xf20384dd06161733U,
  0xe502eef6e7f848b7U, 0xe9eab29ad114c8adU, 0xc00eff2b2c19e0cdU, 0x2611a1f71ffd3e1bU,
  0xf01deef7e7c60debU, 0x1319be9004de10baU, 0xc8100b48f604f3ccU, 0x1f1e83709e4f908U,
  0xe6f408f1d6fed907U, 0xc798fa1d15fefbefU, 0x2bd605cdd0f423f1U, 0xe5c8dcba20f9f7b6U,
  0xd80afbf8081ae4faU, 0xe08f191f0104f5f4U, 0x12d8f1def7fc2bf3U, 0xdac1e1e0011cd6dcU,
  0x12eef0f9fa26e8b8U, 0xdb94df03f42408e7U, 0xbf3fbe10d13dee5U, 0xf98fb60528230eeeU,
  0xd0fa04ce093907b1U, 0xdfb3bee8d10148d1U, 0x9cd08ff1bfbcebaU, 0xfb81c611110305d9U,
  0x717e3e911320c21U, 0x17fe02f0fb193e05U, 0xf2c634070b0cf3deU, 0xf8ed01e920fef806U,
  0x27090935f5280efcU, 0xf3fc4213052f440dU, 0x2bc235020614fe26U, 0x2f0e4192edb140cU,
  0xff08e5031d100a2aU, 0xf7011f0619f9340cU, 0xf4af1aece10d0af0U, 0x1df8080ffee2040aU,
  0xf3ee03fe1f17dc21U, 0xff722b0a21d8fa01U, 0x6ea0126fa1f4116U, 0xf615282ff5fa1906U,
  0xf518070816f80e26U, 0xfb7f342630ff1016U, 0xf5dd062423283f2dU, 0xf40a2513dced02f5U,
  0xfb151302180f0f04U, 0x1f8132307d51a00U, 0x5ec08dbf8090d13U, 0xecf510fae90fef1bU,
  0x4e00c0e18ff15f2U, 0x30c18f1fc12ff04U, 0x13df14fe20eab40fU, 0xf50e0803d90be1f8U,
  0xf6010905fdfe2720U, 0xd221100f4e4da19U, 0x2f60aeef012fb09U, 0x1bff0c21dd05e6ebU,
  0xccc4181a1b17f906U, 0xf20b141bdce9ea00U, 0xedb090d12fe0afcU, 0xd8022126fc08ed05U,
  0xe21a22240bf5fb24U, 0x190d29021cf91e0aU, 0x30102d5ecdbb10fU, 0xea28122cdb0bce21U,
  0x2907ee04129f0d18U, 0xc21afb0ee1d8dc0bU, 0xef2802fbf2f71a14U, 0xf3df09e8140006d8U,
  0x352e0111f881de33U, 0xf42f2e25ebd3c017U, 0x13d90615f2300bU, 0xc7da25e00702e7ceU,
  0x13fa210edf9410f4U, 0xbc01150902fab022U, 0xf806e0fe0f1bf623U, 0xbd12ebd31723fed4U,
  0x15fafa07e496cefeU, 0xcfff0d0500c5bf07U, 0xfd28d904f50e00f5U, 0xd0fa0acd1bfcdfcbU,
  0x120dec03c6a0d4fdU, 0xcd00200000f5d11eU, 0xee1ec70d04f3fd1bU, 0xf0f21bf003e9e2d7U,
  0x210718e4e8969d0eU, 0xb305091904cbe8fcU, 0xe41ce5f428e50ef9U, 0xc7e908f5ec11e0e7U,
  0x2707150fe3a6be09U, 0xb709fcec08efde0eU, 0x172cf21c17ca2011U, 0xd2fb1ae500e3eeecU,
  0xcc3f090919091993U, 0xf790fcdaf3e3f7daU, 0x23d978edd4d9e3U, 0xb2cd94c01df91ac1U,
  0xd0dce7fadeef0cbfU, 0x1985ce9be3d91db3U, 0xd508e35117d6f5afU, 0xd4e1a2344ee1051eU,
  0xc01015240438f877U, 0x18f539e2f9ec32f3U, 0x3e1d0efd4c6f701U, 0xd511654b16d537e5U,
  0x6f33824b34a022fU, 0xe5077f360abafe3dU, 0x15d4fb6de2be0f39U, 0xe61227052ece280eU,
  0xdd4add0fa6191c1dU, 0xe84501e2f3bb0aefU, 0xa314f90cbf004bcdU, 0xe811ed49face1153U,
  0x622fdfe372700acU, 0xca92edb0ec019c0U, 0xae23ef5c11cf3ef7U, 0xdff8c7395baf5e49U,
  0xe011d91940dfec60U, 0x181d01d9f8a6cd09U, 0xe3de112b08c22fe9U, 0xee172b494ac80f43U,
  0x11df5e80f21eabaU, 0xde98f1dfeaf518c5U, 0xcc350b2f07fcf8e5U, 0xdaace00150ed0ac3U,
  0x5efe3e71c03e8b3U, 0xc481f5bfdac1fce0U, 0xf13b153ef0ebf2c0U, 0xd49fd01652d337cbU,
  0xec0cf6f4331f0ff6U, 0x6401be72bf721e8U, 0xd6391e2afdd023d1U, 0xf6dad81f6fe906fcU,
  0xfd15040bf7221922U, 0xbeb58291adcfffcU, 0xf8fc3a351712e520U, 0xdee1e0216aea10dfU,
  0xd8f9efd8fe042007U, 0xea050df900ec06e5U, 0xdafe0d1910ef07c7U, 0xf2f20a0857c03a13U,
  0x33fae0202cf52027U, 0xfe034106fafb1908U, 0xfe042350fde92119U, 0xdadbfd1e6abc5d0eU,
  0xcf07dbdc26fee807U, 0xf0fb03cc16c00bb5U, 0xe3fd1c16f0d935b1U, 0xcef5fc232eb959f1U,
  0xe7dff7e9fefdc20bU, 0xe7103906ec21110aU, 0xbd81f3c15e50a0fU, 0x1d0d12ef0432bc15U,
  0xe5ca37e8140deb1cU, 0xe8e83af2f60e11efU, 0x38e5360e1ecf01ecU, 0x2e11310a0420eef7U,
  0xe75d1d6058f555f6U, 0x1c4f5f41d4f5001bU, 0x24156c1653f229U, 0xfe24fc31376b4ef8U,
  0xd3c930294021361aU, 0x340b362fc609184cU, 0xfde3025a1a2ce412U, 0xf506b3b2c245e08U,
  0x837f22631320f1bU, 0x17f91d07da1d2916U, 0xafff95bfd24094aU, 0x234c1e1ff736e41bU,
  0xeb331b430c261c23U, 0x1dff754cebf22348U, 0x24fb187fea460c00U, 0x60206143c081ef9U,
  0x21a55ed0bf51819U, 0x290070350dff1fffU, 0x60223240ef12216U, 0xfafb50f14717fcf9U,
  0xfc901202f236db05U, 0xfcea1428e8224bf8U, 0x5fe2e35162db621U, 0x251a4ef945ee2054U,
  0x11cc362d063e0c44U, 0x2f2d25460f652c50U, 0x2bf41361501fb012U, 0xc2a72523d3de433U,
  0xcfeb070d2e430b38U, 0x3ffc2c2e1749554dU, 0xf60550221d344bf7U, 0x550f48445023174dU,
  0x150542073b6b27fdU, 0x82c6531ec672c4bU, 0x2d105e1b081d1046U, 0x17634d0441fd1f2dU,
  0x24c71c3c19375939U, 0x58093d18f74b1656U, 0x43c0313b354fa442U, 0x2a0437f534233d17U,
  0xe0c3170e517a3631U, 0x1de7692dfd0a5608U, 0x3dce6450682ec509U, 0x1c2e692f7f3a1b50U,
  0x305146024673232cU, 0x293d392c174b4613U, 0x20d0313c155fdc0eU, 0x150b662334200d54U,
  0x10d60d09e70ddcddU, 0xeb03e2d853fded01U, 0x160dfda9f2ea00f5U, 0xebfff8060d15d604U,
  0xfff7f91213fe06ecU, 0x6ddfee94fd519d6U, 0x10ffea81c6d1d3c1U, 0xdc21d10b111f0b08U,
  0xee0c0efe0e03fddcU, 0x12e3f4de070012c0U, 0xcfd10a9ebf9ecdaU, 0xdde3d1fafd28efddU,
  0xe5e1dad5edfc0f09U, 0xeedceabf17040dd4U, 0xeff623abddf8f1c0U, 0xf9d5fde10d0522e7U,
  0x417dce4ecf829fcU, 0xfdf3e5ba17e722a3U, 0xcef51995edfd05c2U, 0xe050806f8ec18f7U,
  0xdf8dbd904142ef8U, 0xf3fef7f6381b21d5U, 0xf0f417a8c91cfedfU, 0xd0810fdfdf72feeU,
  0xd716e5af0b1a1404U, 0x15f8dfc9def025a2U, 0xcef023a3d003f894U, 0xeeef030c01c61ff3U,
  0xe52dd9f2440b3b11U, 0xea7d170121dfefe6U, 0xdad4effbf80b2301U, 0x8f91333f0d801faU,
  0x234eb031f09e038U, 0x107f110d3ad923fcU, 0xfedc13dae2d7250fU, 0xafb0b13fde7ffefU,
  0xbed0d0f15f51e11U, 0x5101d28f9ec0e0dU, 0x4c2edf1e8e6ed2aU, 0xdcee0b22defd07ecU,
  0xcec72b1a1e03e201U, 0xf7040c0cf80ce915U, 0x13c010fcfee1ee06U, 0xee04fe0dda1804dfU,
  0x7e01324111ef0fbU, 0x17fc0e28fbf60a28U, 0x1cdc0de8faeaf432U, 0xea070535db0ecdffU,
  0xc0cc28183af7d2fcU, 0xe7f63a1ef008f306U, 0x17bdfbdee9d8f51cU, 0x120b192aea11bb08U,
  0xf0b41e302523e92cU, 0xf7063d420efff010U, 0x16c127e908d8ee3bU, 0xfd04072cff23d0ddU,
  0x20ffb15ddf4020bU, 0x4110f0e11fe0d09U, 0x16fff10b0ef42afbU, 0x804b4f60bf1fdU,
  0x2311fa10a3fad503U, 0xff01251b1df2ff1cU, 0xf0f8e420feeb1af9U, 0xeafc12ae02efe2fbU,
  0xfcf60a04a9fa0803U, 0x2fb0b0c0305ed10U, 0xb10cd04110efd01U, 0xf40608a8000b03f0U,
  0xf5f3100fa9fafd03U, 0xf2fa0dffffea00f5U, 0xff0ecf190efa0bfbU, 0xebf1feaaf3fcf8f8U,
  0xdfbff0d9003e4e8U, 0xfa010b0a03f7fdf7U, 0x414e51cf5fc0008U, 0xf607ec98eafdf0fcU,
  0x6fcf7fa91f5e9f6U, 0xf2ff000309f3e50cU, 0xf2fbc313ecea06ffU, 0xe8f3eca1ebfff200U,
  0x10fd01f381eedcfaU, 0xff01fff316fafd07U, 0xedf6dc24fcf11a06U, 0xf4eff08bf0ebe4f7U,
  0x2458fae6d6f51903U, 0xee1a041608f5f716U, 0x71eef21f1fbe0edU, 0xf0e519b723faf6ecU,
  0xf21e709c1f2d515U, 0xed081612fef7fa1eU, 0xe60bf4f5fff5e8fdU, 0xf70afda3f2f1e2e7U,
  0x8f30008b70a010dU, 0xeffb0eeff3f1f0f4U, 0xfd1ec9150ffde210U, 0xeaf012880cf600dbU,
  0xe02f1e3af05e213U, 0xe702f600faf3f113U, 0xfd2dc50818f9f701U, 0x2080c9ae410fee1U,
  0x1115fc0792f4d001U, 0xff001ef6fb0afb09U, 0xf823cfedede4f6f7U, 0x1f7038c070bebebU,
  0xf0406ff8af3ba02U, 0xe7f9fd18fbf8df0eU, 0xfb2dbef1f4e6f5efU, 0xf1eafda4fe1ad2f0U,
  0x1d27f80b81fdd625U, 0xe40b13170703e3faU, 0x151ec412e8d9070cU, 0xef0cf78a0311e6e7U,
  0xdc9e3b490425f014U, 0x53295d42245b454dU, 0x3cc828320b08db0dU, 0xc311a0d2321e0fcU,
  0xd1a52d0047293207U, 0x34052f23de472042U, 0xb0e56563a62af10U, 0x1b0f4844511b0902U,
  0xfa0b142a52223314U, 0xb190f49172a551bU, 0xff085f1b522c4230U, 0x331672507710d935U,
  0x150ff9333b2d3526U, 0x5a034625434743ffU, 0x1ff5441b401b2c2bU, 0xa531b561cf12040U,
  0x15270e42256d6622U, 0x15f0134ffd1d422aU, 0x5130d1b3e5d17ffU, 0xe0b364d333b124bU,
  0x29513e5746466d08U, 0x2cfb7f5c1a255d20U, 0x1dc0382b4775d639U, 0x474a4c50745435f7U,
  0x2c5ef0193c073a50U, 0x17221d5b32382862U, 0x7f631624c41033fU, 0x590e2a2c3cfee502U,
  0xfe9ddc7e803fef7U, 0xd6e3440d2bddde0bU, 0xdb11f2c6badbf2f3U, 0xd5de0e16ece4c108U,
  0xafff0c712dfca59U, 0xf700150503d8c61dU, 0xeff8c4c9facdeefbU, 0xed717e6d1f8ae17U,
  0x25170afb11f3fd33U, 0xe90e362b0fd2d930U, 0xfd08ced4c5d40e11U, 0xdefffffbfe04da18U,
  0x2325f2ed14d0d323U, 0xd6f82f29fd0af003U, 0x9d5ecc5f20c1112U, 0xec0730c80e16bfdfU,
  0xf7e60f13d5dbf255U, 0xa11311024e3ee17U, 0xfff3ced5db1101e5U, 0xc9ef45dcccf69fffU,
  0xedf4f828f4c7185aU, 0x91a7f5a09ffcd3fU, 0x21d0c5c6f20e243bU, 0xd2832c9edf2a6ffU,
  0x15a2e7fcfb16051eU, 0xd9f26403e8cacc29U, 0x23e3fe09cb14f62fU, 0xec0861fe00fe96ffU,
  0x1b2cffc4e1e3f2daU, 0xe9faeed9fb20f6fbU, 0xc028e33ffe10e8f3U, 0xf7e716d8e11405d0U,
  0x2315d7d503ffe0e4U, 0xe0daebe1e716f9ceU, 0xb906d2231f0ad9ccU, 0xf512f509c5eee3cbU,
  0x9e9decee50021faU, 0x915d4d2d126e2c3U, 0xa114e7192b28e8daU, 0xf5fd14f4dfece1dfU,
  0xe07d2c112ef1719U, 0xfb46f2f6121218f1U, 0xe3fa0c0a07fffa1aU, 0x2ee93cf7f9d7e2d9U,
  0x120bd59c24081f14U, 0xdf08ebeee33321d8U, 0x88fd1b0f1437e2c2U, 0x300b0cfa00c2d1edU,
  0x105db3e9e5f92a40U, 0xd417e6033f1ae7U, 0xc0ecee282019edecU, 0x20233e1a02c10a00U,
  0x1306c1810609faecU, 0xdbfcaeb0fc1eee90U, 0xa904ff1d2a4925a1U, 0x350b220be5aaf706U,
  0x4ef171837ebc7f8U, 0x1139e1082b3e250cU, 0xd4d016d61fd6b520U, 0x5514f720d8cda835U,
  0xd7fee0f12b2005ebU, 0x314ee61521520fe5U, 0xfb30a1c04f089f5U, 0x5a21081ec6e7ee41U,
  0x27ddecfbf9fec60aU, 0x38dbee06182bfb0fU, 0x13932cf2ebfbc103U, 0x57f8302fea0fd62dU,
  0x12650e112f011b09U, 0x10faae044523dcbU, 0xfbae57ea0ef3d617U, 0x4e29ec33ed1c001eU,
  0x211e5fef60d16faU, 0x13f6b4ec12133e0eU, 0x1e9126eafb1eea16U, 0x4b2afe2bd522e529U,
  0xd807fdd72f1e0bc0U, 0x2c5be1e71f4c34daU, 0xfa8139ed295bb0d0U, 0x6106f7fc1005472cU,
  0xb70b10da480c27dbU, 0xf80cf7de193a3d03U, 0xdbbb40df074e06d7U, 0x4905022ff5df1308U,
  0x19ff08f4e3351f24U, 0xe1e0a2c2e2513feU, 0x1d08231145ef95e0U, 0x142c04223b0cf435U,
  0xf1bffd3e2845092eU, 0x230d04f3333b4c36U, 0x3bf2402c1b27f814U, 0x1b42191c4bf318fcU,
  0x28132b49f83c1c1cU, 0x4aed0a480a222d33U, 0x17ba2d0b40292133U, 0x3458123847f6291eU,
  0xc00fa3e13311f0eU, 0x500c1e1020503f16U, 0x310632151f5e3b09U, 0x1c542f102f2d0256U,
  0xeb223f2b0f481c0cU, 0xfee7f926ce412933U, 0x4ad1440a4d45c2e8U, 0x37eb383437233b0cU,
  0x3f8f004331a6d3aU, 0x4acf45fb28332547U, 0x40b6326a3a34c440U, 0x57124d277f0d2545U,
  0xd43af8f9274d41e8U, 0x4b263aff034935fbU, 0x3dee1a521458fc05U, 0x133322165df52e37U,
  0x1b0904dbf70910f6U, 0xe8c6e307cbf2f0fcU, 0xe926e61911fedde1U, 0x15f2fad800f7e4fbU,
  0x4d6dac0da03efdfU, 0xf4dbf2eddd00fcebU, 0xc317f51502edf0d4U, 0x180809e9e210f906U,
  0xb0ddfdde5f11009U, 0xbfbf504f00c05e0U, 0xd81bea19051a02e0U, 0xb0034e1e505eaeeU,
  0xf70edee0f3f3ff29U, 0xfff8f716f509f713U, 0xd505021d011209fcU, 0x1efc37f5f2efeef0U,
  0xee3b1ad0a180cf3U, 0xfffbecd4da2405c8U, 0xb903000e0f2a24ceU, 0x10ecfbe6fbf4ecfcU,
  0x112bb3cb011610edU, 0xc47f3fbd91bfd09U, 0xcb051c1c1b2ef0f1U, 0x26ee15f21bc12824U,
  0xf2149e811cfb280aU, 0x2faddbef320f4b5U, 0x8d10052c0028099bU, 0xc0d181707b50104U,
  0xf116f3fdd007fbefU, 0xebedfce5fbf306ffU, 0xfcd9f327eb070201U, 0xf2fadabf0a070ae2U,
  0xe6eeff118e0810e5U, 0xf70df3ebeef60ff5U, 0xf7dde931fdfc0204U, 0xf7e1d1920d010fddU,
  0xf7ee0017c114fcf0U, 0xf204f6fd01f50801U, 0x4e3fa1eeb04fa05U, 0xf30af2a4fd0513ebU,
  0xfa1a11900b0e06U, 0xe80010160700ea06U, 0x60aca22f000fa01U, 0xf50df2930dff20f5U,
  0xd6f20807ad0a1de0U, 0xf0fbe7ed0b0009edU, 0xcf3f230f80dfeffU, 0xf8efc69507f53ae5U,
  0xf90c0ef19efe16eaU, 0xfc04e0fb00fbf7faU, 0xe6ffe40b03fcf7feU, 0xecfcd8a7f0f334e6U,
  0x82508ee81f2fce3U, 0xd1307fc1af7e3fdU, 0xf9fcef1608ef1ffcU, 0xf5e9d19cd7e82d00U,
  0x22f805eee8f4fdceU, 0xa4c6ed890703d3U, 0xc119dc3628ffcae8U, 0x12fdf4e9010f01f3U,
  0xfdd905dff6dffea5U, 0xf2adc2d581ffffd4U, 0xb41bf81d2011e3dbU, 0x2207eefce714ee0cU,
  0xee2eebf0f1dbf210U, 0x1cf4b9d4f605eec4U, 0xcb0eff102307fac5U, 0x3025050f08e1072aU,
  0xbff0e0d07e5111bU, 0x12071914fe2bf503U, 0xda05f0341b1d03faU, 0x21051d05eef1161fU,
  0x41fd9c6f4e9eddfU, 0x110aa7c2f7f0e4d6U, 0xb013e631ff1706d4U, 0x2816f2fae5081cU,
  0xff0cd5dd0cd4061dU, 0x1bfacf0bf60b0701U, 0xb315ea41211c1af6U, 0x1f15060aebbc0916U,
  0xa06baae1df20ff4U, 0x1a20bac7e9fff0a1U, 0x8905e336113505a3U, 0x21a1bedf0dd0821U,
  0xfafcede3c7ff14d8U, 0xbc9fe8ddb1dededfU, 0xffc5e116e1f60204U, 0xccf0f208f2fb12b4U,
  0xea20eee6e2f80ff0U, 0xc586e1e4cfe2fcdfU, 0xfba8f7f6ea2cede2U, 0xd8e0d9e6f8fd14afU,
  0xdb2305110a16180eU, 0xd3d90110b1ff0503U, 0x1ed6031f1231eb04U, 0xeaf1e51ddc2d1fe1U,
  0xecfe180c25fb3203U, 0xdddc0c15cddff80dU, 0x1cc417080a30da10U, 0xdffe0b33062852d1U,
  0xe12306fc38f56906U, 0xfba01a00d8102104U, 0xdb911270b4113f1U, 0xe3fdfa0df4126be8U,
  0x173e011308337f0eU, 0xf4f3413eb9170221U, 0x22c3032e0261101eU, 0x1903e21b030571f4U,
  0xd20705f82a1042f6U, 0xf00e160603dceef5U, 0xaa20236f55e2000U, 0x17e6eff11e0569dfU,
  0x1e081bfce411f0f6U, 0xa2a3ddf0ce417e8U, 0xb2013c5e2c110eaU, 0xdbfc3bf9f40dc20bU,
  0x17fef107d50ec646U, 0xf444572a25e90b1aU, 0x525f1d1d4c6211bU, 0xd12c7fe9edf7ac0eU,
  0x23151910233b3a03U, 0x1033a09ffd41c15U, 0xf91f1100f8fb032aU, 0xde0221ff183731feU,
  0x1a0c05feec161b02U, 0xe2042afb02d720fcU, 0xec0c12dae6f001feU, 0xd20525e0430e2702U,
  0x2afaeef7003ced0aU, 0xecf535eff3ef36daU, 0xff1f22ece5d7dad3U, 0xe6053de526e3d8f4U,
  0x22f3e2fbdf37cb4fU, 0xe11272dbf8e92aebU, 0xe02219c7dcdeeeefU, 0xe9e654d744fbb4faU,
  0x2715e7ecf2310e2fU, 0xf41151130ae91d1aU, 0xe91f1901e7ed0201U, 0xdaf941ee46dcc9f6U,
  0x28efe6dc010614f0U, 0xe9ebf50bd6fcfdefU, 0xcf22f0f5f2f3fad9U, 0xde5f2dd0e0bed08U,
  0xdfccac1e517f3edU, 0xee1e9dce5e906deU, 0xea22f6f5fb0bf7dcU, 0x5d8f4f8fc06e8f4U,
  0x304cad00b04010aU, 0xfaefe0e0df0112edU, 0xcc110118141322cdU, 0x14fa09fc0bfa1508U,
  0x1303c0b2effc07f8U, 0xaeefdeaf0f5fde3U, 0xe40df4fe181101e0U, 0x19e20be8f9de0802U,
  0xef9daf170b0b11U, 0x8f8ead0191217e0U, 0xc709f902f21915b7U, 0x1cee12f013df1703U,
  0x1203afcb0e14fd13U, 0x41c0107030616efU, 0xd506fd1c110702ffU, 0x10000715f3e0012cU,
  0xf304819e080721f9U, 0x2009d9bafb0417c4U, 0xa702fbf70e2107b5U, 0x11f90b18f3b80900U,
  0x1fff0f1fc0a0cfdU, 0x2561d0031f9f5ecU, 0xece71c1ce3e337ecU, 0xe91224f7e2fceeeaU,
  0x131405fa3712ee29U, 0xf07f1dfa2719ea10U, 0xcef02091ded1f0aU, 0x1b14370609faf5fcU,
  0x1151b28010a120fU, 0xfcf80119f3f00b18U, 0x9f316fc23e4f00fU, 0xfa0405ead515f10aU,
  0xee8608221206180cU, 0x510231a31ea0405U, 0xffeaf6fb08f62601U, 0x41e102efb17e011U,
  0x11b81816270b15feU, 0xfaf01816e61d0507U, 0x1beb1c000e0edb13U, 0xf1221b0ce317fa01U,
  0xd5e00c1d052207f9U, 0xa15191af30f1916U, 0x10ec18232d250129U, 0xee311b13030df7f6U,
  0xf19c181f1bdffd22U, 0x23370e2afc13d921U, 0x1fede21cf5120121U, 0xfe0f2f371d09eae9U,
  0x20eff0efee0507b6U, 0xc8ec8dfb51107c6U, 0xc908f0ef0415ddf2U, 0xf7c4e4f8e70701f8U,
  0xbe6e7d5f1fc04cfU, 0xd81d9e0a70319caU, 0xd5f700f9fbf3d7d7U, 0x2e0c4f909e2f0fdU,
  0x605e2fc28050b03U, 0x10f6f5ed08fa01daU, 0xd2001beb1514f8cfU, 0x28fdfa1ceffb0513U,
  0x320dfb29f8f6f30bU, 0x28fe3713050b1620U, 0xf40b1ef8fc110311U, 0xa0d190c03fcf81fU,
  0x141afbf2fe00e210U, 0xd1eeadb0ff305d6U, 0xd4e71ddef908f5d5U, 0x1c1e1804e1e3fe06U,
  0x2d0a00fe1102eb1bU, 0x81b2f12f201e714U, 0x1c000bf8f90af429U, 0xe31d14eb00f5fb17U,
  0xf6f7ddcc00f3f3efU, 0xb02c0ce1bf1e4d5U, 0xbaeb03e9f6fc23c5U, 0xf4f4fefa05dadf08U,
  0xf0ea2917dffef0cbU, 0xf70cf1f515fadaf9U, 0x6f402d3eac6e907U, 0xf11ab3e0e001d3f0U,
  0xc9c1240ee7f2e5d3U, 0x4fcdce324f7eaf3U, 0x1704d6ebd9ebf900U, 0xef6adf20f1ce8e8U,
  0xf3ed090703e704c4U, 0xf8fbd3c1090bf8dcU, 0xf80eede8fafae5ddU, 0xfee9c90001080ef9U,
  0xe402f8ea0be8fcbfU, 0xf9d3d793f7ea08c4U, 0xe717e8f9e9f803ccU, 0xfee5ab0f17e70b11U,
  0xee1ffcf91606fefaU, 0x7f8e3a40ffc0ab4U, 0xd50612f0e8fe3be6U, 0x1c11e21e14f80400U,
  0xfffe8ef051a29e5U, 0x271bebcfeb1c0ccbU, 0xee08efe300161acfU, 0x10f0effe06d62a35U,
  0xf9eae6c822ef1ce0U, 0x5dcc0813110f787U, 0xb72211f8df0ae4c3U, 0xe8eecb0409ef2319U,
  0x127e6e4130a0728U, 0xe10142faeaf22109U, 0xee1550e805f71900U, 0xd2f4feec18f905cfU,
  0x1a1ef8eaf604e54cU, 0xcb2a470413eb0d10U, 0x70a30e7efd82908U, 0xcd012c0c19f609edU,
  0xaf5f9f50ef4bc11U, 0xb5f62a24fed3fd02U, 0xed100ae1fbe4eeeeU, 0xbf00f0e2101de4bcU,
  0x4f9ff04e7e49a02U, 0xbff9151bfdb9140cU, 0x915f7e5bce9f6U, 0xe2fef70d10f9d1acU,
  0x260918fbf1e7a020U, 0xc5ed2f12efeaed1aU, 0x111603e712c3f5ffU, 0xddfafcef1efbced4U,
  0x8fb0ae8f3de8417U, 0xcdf94016f7d8f006U, 0xf9020fdbfcd0fe12U, 0xcf050aec06fbabcbU,
  0x270c04faf1e38116U, 0xe1fa2a21faf7f92dU, 0xef7d60ec5fe08U, 0xd2fa0fde081caee9U,
  0x4053010f5fafae0U, 0xe098e3deebff00f3U, 0xf812f7eafc03fbf8U, 0xf5f70304071a08fbU,
  0xf6fafdf7daf5f4ebU, 0xe587ced6e1eefbedU, 0xe50e0efe030718c9U, 0xc0dfadff604faf2U,
  0xaf0f005e90a02f0U, 0xf493cbf1f3f80dd1U, 0xd40beb05fa0809cbU, 0xcf6d7061001f204U,
  0xfbe1d0f40a12c8U, 0xe8ce1c7d516f7e4U, 0xb6010107f4f41a94U, 0x1e08f1f0090807edU,
  0xf422e3ff020200f4U, 0xf8e2f3cd170ff6e5U, 0xcff9efef0c0053a8U, 0x230df5eaebdb16f0U,
  0x9f7ebfe0515070cU, 0x19cd0f110100f91aU, 0xe30aef01090e2ce1U, 0x3ee17fb10c9f902U,
  0xf707b8b409f2fc0cU, 0x17fde6d4ef100bc7U, 0xac041313001c1d81U, 0x2110e0009ba1c14U,
  0xde49030df8dffd31U, 0xe17f202230eae001U, 0x1bac08ea0df61114U, 0xe0160f31ce23eae5U,
  0xdb36020c1efe1c3eU, 0xee6c31126fe01003U, 0x17bf0602d9f44227U, 0xee3c3e26e909f10aU,
  0xbcdc1627271a13eaU, 0xf707210e0af2e909U, 0xda601dfe101d614U, 0xe31b0dedfa1b42e1U,
  0xafc12624fae30ceeU, 0xfd04fb0c0fe6fb1bU, 0x8c0f8040ff3c70fU, 0xec190cff0e25fe11U,
  0xd3cf2807f21f38eaU, 0xd7121e12171a051cU, 0x16d207d5e303c820U, 0xf0140b1bd9380515U,
  0xa5a631362bf73beeU, 0x70d3912f40eedf4U, 0x2bbaeec9e603c709U, 0x5151c31fa29f2ebU,
  0xe7d1310e351e51f4U, 0x219302b0f1bfefeU, 0x1caaf5f0060fdd47U, 0x506121b0c48f5d9U,
  0x120a132c3ec30ccdU, 0xed20ee02edeedf28U, 0x150a0f0f17eacd01U, 0xe119c220f3390ce9U,
  0xee00f1717b8cfb8U, 0xfa28b1c2fbccf2dbU, 0x6f0ddd615fdf7f7U, 0x2705c7f327fae0f0U,
  0x14ea1c21260401a1U, 0xe3e4e5b2a31706ccU, 0xeb0a1bcf03160ae1U, 0xd5f5a63a01f2e5f2U,
  0xcf0f0ed0fc400b3U, 0xf2d1cbbeb2e5d6aeU, 0xc1fedfd81613fcb6U, 0xfef4d70f0e03daefU,
  0xfa26dbeaf7cbfa34U, 0xf16fdb5faedf7e2U, 0xdb0a0d0954d904d3U, 0xe01211543d2f60fU,
  0x100be90c21b2fe0bU, 0x5192ffb0a16e5f4U, 0xc71729f355f009f7U, 0xee1a392d04e7f54aU,
  0x17d3ebf810e3f5acU, 0xf7fbdc8bd4d3e893U, 0x8e01d32a44e67faaU, 0x18f1b46236bff2e0U,
  0x2746000008c3U, 0x187100001056U, 0x189fffff4667U, 0x143e00002258U,
  0xffff432c0000081bU, 0x57a00000dcfU, 0xf0000366eU, 0x2724000028e6U,
  0xffffe6f200000929U, 0xc3f00001349U, 0x1b63ffffcdfdU, 0x9f5fffffc64U,
  0xffffc0a100000c4bU, 0xffffe590ffff4784U, 0x14f4fffff2f4U, 0xffff7a88ffffcc75U,
  0xffffc99800001bc3U, 0x44a00000ac6U, 0x2284ffffeabbU, 0xfffffdd70000036cU,
  0xffff40fdffff705eU, 0xfffff38300001595U, 0x258500001ca3U, 0x4fdffff3a64U,
  0xffffbd7e00001619U, 0x10b3ffff7102U, 0xbc500001a6fU, 0xfffff7600000034fU,
  0xffffe0040000102eU, 0x14eb000005b2U, 0x17ee000017eeU, 0x182bffffe80eU,
  0xd708c248bd242df1U, 0xf22010a14e71c0dU, 0x2505f91cfeccfbfaU, 0xf90ae60ae844fee7U,
  0x20262fecfed2013dU, 0xf31f2104e9e10228U, 0x5d709e00e20bdU, 0xefebe924b814f9faU,
  0xeaf5d171ed2b1eeaU, 0x1523031032f6341fU, 0x2b1604380dd5e8fbU, 0x17380b1cde4b2b0eU,
  0x233429fe13f5291aU, 0xef31192df6fb0b47U, 0x3e2fe611defafecbU, 0x9d809290727f30fU,
  0xfb03d84de0160dd4U, 0x130d0d1f03d92e20U, 0x2111f93b19f8f8faU, 0x13410a0ede44050dU,
  0xfb221ef809122134U, 0xd6020e0eeafa1224U, 0x17e9f92bc90d23bdU, 0xededb07f519fff7U,
  0xe724eb7fcf2321e5U, 0x2615f71e30f72422U, 0xe290d361df6e805U, 0x71be8fddc31f4e4U,
  0x10241fe61106062bU, 0xce0c100fdef1202fU, 0x200dc09bf2814e5U, 0xee7ee04f410ecefU,
  0x20a055fe622250aU, 0xe01f70c27e22e2cU, 0x220c0426dfe9de17U, 0x243deff5d3382513U,
  0x12280bec1705fc1aU, 0xb2191e0dde1b2a3bU, 0x2af4ee29d6ef1ec2U, 0xf5e808011117f3f7U,
  0xff110b8104160df3U, 0x71ffefb1b10b7ebU, 0xedf4fccf110c06f2U, 0xf6d512f50ac9f309U,
  0x60bfc011309ebf2U, 0xf9b900020504b5d9U, 0xf0de1b020dd5ef08U, 0xed170bea11190314U,
  0x1cf7ffad07e5fb1bU, 0xfaf1e1002201c1e1U, 0xe504dfd11514f6e8U, 0xf6fc00ed0bc3f50cU,
  0x515eff6160ae7edU, 0x2c3eee5f917b4fdU, 0xcec0ff816dee917U, 0xf206f1e71101fc1bU,
  0x18fd08eff2b8f105U, 0xdfdb10051003c401U, 0xdaedfbd70320f5dfU, 0xfaea1bea05d20316U,
  0xfd0ee0fbf2f6fce4U, 0x5d0eae90b02cfcfU, 0xdaf008f7fce1e508U, 0xf105ebdcf81503fcU,
  0xfff1feb413ef0a06U, 0xecfa05fc1a05cbd7U, 0xcced08df21fff6f1U, 0xe8d612f202c6da0dU,
  0xf6f4e2f819f7dde2U, 0xfacdeffb050dc7c1U, 0xfefe131b15d8d7f6U, 0xda0309e6fc0a0400U,
  0x12f00dcc0201f8f9U, 0xea0306f3050ab1dfU, 0xdad902e61713f4fbU, 0xebf409e7f8c1e910U,
  0x807eafe06f7dbe1U, 0xf4c2f9f5fe0eccdfU, 0xf6fe12ff04c7f307U, 0xe1faf9e9ef0a0214U,
  0xebc415ed16e5d310U, 0xc4eefdb7f5eafad5U, 0xe008cedfe7f1d201U, 0xf703e7f3d8ec0013U,
  0x1a2abe0627f1edbdU, 0xf802e3bd0ff0e71aU, 0xe53efde203f2d8feU, 0x3e81fd31608f50fU,
  0xeab805e50abdc5f2U, 0xa6b2cbc01eea05beU, 0xe6dca40200f6d419U, 0x3f1efbbc718f2f7U,
  0xfe0581f414e2e8a8U, 0xbff6baa5df01eae7U, 0x1516dee7ffedf504U, 0xe1e611afe5e60109U,
  0x8bae7e404cec50fU, 0x9dd2eac2f80ef1d8U, 0xf303b3f5fcf6f105U, 0x18fddef2e7ecf607U,
  0x2eb8f0a16c7fbaeU, 0xd301daad0ddd0614U, 0xbb11decf02f1e5ddU, 0xecffb2e6ed14e0U,
  0xdfcfd715e4d2d4f2U, 0xa4d405b1f7f3f9e7U, 0x121bdfdf13de0205U, 0x12f6e3f1e020e6f8U,
  0x7eea827030aef9aU, 0x25f8c9aa0beb0607U, 0x1df1fde6dd08fe08U, 0x18020fc1f7f7160cU,
  0xedc0b1dec9e4bcf9U, 0xbeb61fa9e70f14e8U, 0x1e1eced7f0e304ecU, 0x14e2f9f2ee2cf7cdU,
  0xff10b2370205f1acU, 0xff6bdb20add0400U, 0xef3fdf5ddeaec03U, 0x5f6fbb1c91d38f0U,
  0xce28f9ce07e60d01U, 0x11200d1ef6ddb523U, 0xbf0201a6dfb60f2bU, 0xe6dd001bd4f5f5ccU,
  0xb4e40efce1b2ec17U, 0x3c8f70bd701bfdcU, 0xdad90847dcb8cafaU, 0xf709dd04e0ebf5fdU,
  0xf330f1c41bc9eb00U, 0x1c04240edd00c0f5U, 0xcc2427ccf6e01700U, 0xfbe5f6e11dc2ece7U,
  0xbc8fc82de6c4c302U, 0x20d6f1ee0ddedebdU, 0xe7eae555dea5ddf6U, 0xf2d8d6d404bcd6e0U,
  0xf64cc3fd04e5f7d7U, 0xcdd12730b8fbef06U, 0xfa34f6a0f0d21f2cU, 0x1d89fb20d0cd95e9U,
  0x81add3100bc9b006U, 0x1fc40b181aead3e3U, 0xd3cfda4612e8a2e8U, 0x35d009d0cda40ec2U,
  0xd50c1c602a7f8e5U, 0x2cfec3be7e4c2f7U, 0x51f12b4f1dd1203U, 0xddb7020923dbd7ebU,
  0x959bfc1a14cadfcaU, 0x19a5e51e22e7d2b3U, 0xbe0ecc2a0dd3a506U, 0x15f3ef0fc7bfdef5U,
  0xcb50eeb9eea70af4U, 0xcce60510e402b4ffU, 0xcb11fdd1f9d5e826U, 0x1884e620f1b39ff6U,
  0xad86f9faeea1b7f4U, 0x2fb3f90a03e0e9e5U, 0xd0bed2090b9ebc0fU, 0xd824fdd3e0b3fae0U,
  0xf20e2d9fe71919daU, 0x9ebe4fdcbd3e8d3U, 0xd8eee3f3ebf1d306U, 0x8af40beef89eedd8U,
  0xc9c229a7c90c0240U, 0xd1f2fdf6c9e2eedaU, 0xddaefa15e4e8f2ffU, 0xdbdde43f09079cd0U,
  0xe913f7ccc4f203ebU, 0x12ffb406d4c9dbb1U, 0xdc05c9f5e6f1e2bcU, 0x8bf80333e890f8c2U,
  0xc1d547aadb0df736U, 0xe7fbe9f0b8e9f0edU, 0xdbe204dee0ee00eaU, 0xac1e91815ee9ce8U,
  0xe8c10506fbf8fbe3U, 0xd5edef07dfc7e7eaU, 0xd500cc08f2e5d4e4U, 0x9702fc26e4d8f2deU,
  0xc6f617c7c814122dU, 0x6eafbdcc5caee01U, 0xf2baf0e6d8f0f5fbU, 0xf2c5e20009e8d2ebU,
  0xdad006d5e936fcd8U, 0xfff5cafbc4d6fcd8U, 0xec06d313efefd1b2U, 0xb3f8fb25ecc005e6U,
  0xc9f01b9fbc23ff3aU, 0x506dbe9c7d3fefeU, 0xdeca0bcde9f8f4e6U, 0xf2ace807fb0bb3cdU,
  0xd4db000de206fcd6U, 0xf2e80605d3e9fcd9U, 0xdb02de08f4eda69aU, 0x81050efdc9e402d1U,
  0xdbfd1db8b52a0b56U, 0xd4f4f30ab0cbf506U, 0xe9e11fd7effff8edU, 0xfa98ee24ec149eeaU,
  0xf4f9eea70923280bU, 0x130b0206f20fece2U, 0xe8daece7fbf5b408U, 0x9fedf6f2d08ef0e1U,
  0xf0fb19acfaddf12dU, 0xc902f81bc5ed02a8U, 0xdbeae128f9f529edU, 0xf6dc101407f7c7e4U,
  0xfe0ecde71f05e2U, 0xf3f7a011e7f7e7e4U, 0x608f3f204deb117U, 0x96ede31ee68e0efcU,
  0xf308f78ef6edf4fdU, 0x9fd170db701eeeeU, 0xe5e7d503f8ef0fcfU, 0x14f2f4feebeeb8e7U,
  0xf4070217e4fe0c02U, 0x1b0afcfe0207eae8U, 0x2001defebe1b605U, 0xa509e5f0f4ddef02U,
  0xeb0810c1f11fe816U, 0xf707f70ce600f5c7U, 0xdbdb14ffe4f7e4U, 0xfaec10f209f3cbf9U,
  0xfbeb17e7f118f7fdU, 0x13efd91208eb04d1U, 0xfd272403ebdbb9f4U, 0xb301d101d7a0effdU,
  0x8171d8eeb15e6ffU, 0xecf5f21cb1eeedf7U, 0xfad60102dee0f2e1U, 0x31b7e21e0a1581faU,
  0x4ee1036f0050405U, 0xfcfb2728fcef0fdfU, 0xfd140d05d7e1c8e5U, 0xbc11f711d4cdf50aU,
  0xfb23fba3fb28f222U, 0xeafe190c96e0ecf5U, 0xe4dbf530e4e107e3U, 0x36aee4ebe9ff85f7U,
  0xf30de6bbe608200aU, 0x116ecfef3e9e2fcU, 0xfb08e517fcf2f7daU, 0xe91d0ae4f9810fe7U,
  0xf3d5f1f6f9e90f00U, 0xa0b030205e4fccaU, 0xc523190101182b0cU, 0xe7f2d4f2e901e9efU,
  0xf8fdd4ade8f710f1U, 0xdffe200ebdcee07U, 0xe5f0d30debe0ffeeU, 0xf019f7f0128e19fcU,
  0xf2e9fb03fdf00c0bU, 0xf905f6060ad30ad0U, 0xd018f909ec170aeeU, 0xd006d3faecede9f2U,
  0xe902e5b6f1cf00f5U, 0xee07f01dfbede5faU, 0x7f9e107ffedfbf6U, 0xf20af7f50b9b0adaU,
  0xfef3eef10af009f4U, 0xfdff08ff14f615beU, 0xe316e002e10b10feU, 0xe5fbe0deefeffcf8U,
  0xec00beb7ddfb06e0U, 0xfdf3f10300e5dd09U, 0xe4fbf20dddddeff7U, 0xda04f9ff058c1ed4U,
  0xe500f1f7ca16f1U, 0x19f6f7fff0e3f7b7U, 0xee13f5f2e50126f3U, 0xe807dae0e20ef0f3U,
  0xdcf1d0b5d8fff0f0U, 0xf9fb220f03e5e9f9U, 0xe9e4effef1cf03fdU, 0xcefbe0f50d8e0ce9U,
  0x71304ef010b050bU, 0xfef5f4faeddefac2U, 0xc0df11fda0406f3U, 0xca02e8e3dc07ddd1U,
  0x1fcf281eafffd12U, 0xf504f5f6dfeeb3c2U, 0x739f7c816f90ff6U, 0x11da0edd04bffbe6U,
  0xe8e5fcfc171fce0cU, 0xb96ff01f6e596d0U, 0xd7d7f5ed128ae404U, 0xf00801f50af90400U,
  0x502f4a21600dc28U, 0x2faf2d80c10a6daU, 0x734f9c1001f0008U, 0x5e90bd1f7afffe4U,
  0x10e3f1060506e803U, 0x1b9e2e5f5f8b1f5U, 0xe4d32fd91794fb08U, 0xfbff03d70b07f403U,
  0x20f5f9edffcbd300U, 0xdbe81cd41117b9caU, 0x1d27e8c30c04e10aU, 0x906eff0b0d4eeU,
  0x6eed6f123fdcef1U, 0xf1a4f4e2ede0c0deU, 0xcdc019eaefade525U, 0x9f2fedf0c1c060cU,
  0xff010db104f5f510U, 0xe7f00ffdfb0ab9edU, 0x93cf3bcfd15f710U, 0xf7d509fcf1b0cbf4U,
  0x1cff9f31509d707U, 0x1d30503f0dbbfc6U, 0xdace16fbff95e40aU, 0x3f6f6daef02f511U,
  0x8f709e6fb07f424U, 0xef031eebfd14b2c4U, 0xee2c17c5130fecf3U, 0xe2f41fde00dbdaebU,
  0xe803f7090015c8f8U, 0xe8bee2fae7ef9adeU, 0xf0fd1b002ba6f017U, 0x2d0120e8fe18f4eeU,
  0x9b6f94121ed04f9U, 0xfde505f8fff81b0cU, 0x1f0afdf0fe1dcb1fU, 0x1813dfb7f9580c13U,
  0x1eed9f317f418e3U, 0xcbe40b12fe14113eU, 0x2405ea090af3f104U, 0xfadf16de07ec0412U,
  0xf6d9f576e7e5e1fdU, 0x11f4c0f7f109182eU, 0x3bf9e51306e8dc04U, 0x1d0a040ae6451cf1U,
  0x31dfc0013071dc3U, 0x1616fcece4ecf90cU, 0xf30df7dee8022505U, 0x2def6f7f4f6f5f4U,
  0xf8a9fc60fbf0d302U, 0xedcb0e01f30d0034U, 0x1f03f20fd0af2f0U, 0x29570ed2f81d20f6U,
  0x15e9dc13f6fc012cU, 0x10f71502f4f91a3eU, 0x3d0c080bfa2948e8U, 0x12f1f3adfe120dfbU,
  0xedd0fd7fed0fc4f2U, 0xf3e3c6e8f6e5f31dU, 0x1e22e91ff6e3c0e3U, 0x143711c1ed4e5312U,
  0x1628d0fd160331cfU, 0x1cf6d7cbf5ff2930U, 0xf53c05afe2122b01U, 0x1dd6e4ccebf915ebU,
  0xf2dcf049e6e8e0dfU, 0xd7b4ffd5f204fa25U, 0x6f7080adcedd9e5U, 0x1b3619a9025650d7U,
  0xfe25be2cda064ff4U, 0xc916cad000ebf838U, 0xc52f110be2282adaU, 0x1ce5efd8e40023f2U,
  0xfbf605810df41300U, 0x151106fce705bed7U, 0x203d5ea081807dcU, 0xf5d1f8f600c8f214U,
  0xdfe2ec010a18eef4U, 0xf0bd06020107b5bfU, 0x7ee110616cddf1aU, 0x170a20da1f01061cU,
  0x20cffb9bfeb5f819U, 0xe4efe7e3f80dd5c9U, 0xf811d1e40919fce9U, 0xeff713f800c3fa0cU,
  0x6e1d7f80ef8e7ddU, 0x4b2d9efee01a705U, 0x1a0608f016c7fd22U, 0xf8fd00d8f011f411U,
  0x1d812ecfa8aec19U, 0xe3df24e81005cbebU, 0xead4f4f40c08f4fcU, 0xf3f60df70bd91602U,
  0x4e1cefe0cd9e0deU, 0xddfeee900fcdce6U, 0xfc0415f21fc9f20eU, 0xeef8f2ce0625fd0bU,
  0xfde4f9beebaaf40cU, 0xf8f81013f907aee5U, 0xdef8fedd04fafd12U, 0xedc3ea1003b9f920U,
  0xdad7d90201f0f3d2U, 0x2dc7ee0bfb0aa8c6U, 0xb21f50219dcea03U, 0xecfbfbcff9f7031dU,
  0x5c801e4f59ec6f8U, 0xf5d922080318b002U, 0xd9d11ad6fd02f207U, 0xec0413fefab4ec0fU,
  0xeafede08f1f8d8f1U, 0x14b0e001fdeac1d4U, 0x19fe070b11caecffU, 0xcff50cccf901fd12U,
  0xc723b959cce32bcbU, 0x2bff2930c6ae2e19U, 0xf302364b05bc1126U, 0x504b07103e3b2ac2U,
  0xdbd9f61ae0e334e4U, 0xf147fe2231e55126U, 0xcefd73410202a0eU, 0xfbf8d412ccf8f7d7U,
  0xb42bd825bef126b6U, 0x1327ed3ec5fd373aU, 0xdfe03034d7b5290aU, 0x1de9cfe8466723c6U,
  0xeded06fbe5dd171bU, 0xe82217191fa4520aU, 0x17161a57e40f3bd0U, 0xd905d2ecaafe33a9U,
  0xc618e72eb52e260bU, 0x91ff016dec34220U, 0xfa042afff2dc1018U, 0x3b01f2033b3bf7e5U,
  0xd904f5f20d0efb03U, 0x26340f0a20c4464dU, 0xdd20836eb240608U, 0xb511bc1ac1030cb9U,
  0xb722c167bff6ffe6U, 0xfb1837f9abc12e4dU, 0xdef44203d3ba11faU, 0x5825e3f629200ccdU,
  0xe6d40732e5cdf927U, 0x123f07ff54a0193cU, 0x29b5e90cc0522eb6U, 0xdd3edd25b5da4de8U,
  0xcf09c64ce0f5f9f2U, 0xa055fffabf32902U, 0xfaf238d6ee923e1bU, 0x21e2ba3304372381U,
  0xce001b3ab30d15fbU, 0x1f50021958a43438U, 0xa9cc005bb191cf4U, 0xaa26e12dc61c56dbU,
  0xd2e2057d0203fde5U, 0xfce113d9f4ef2a2cU, 0xcfff01eeafac615U, 0x442e10c5e65608f6U,
  0x1604eef40c2712d2U, 0xfcbdbf0824f454U, 0xb414dfdaf6060af3U, 0x9e3eab90a0cfe03U,
  0xe3050360faecd4d3U, 0xcef5feb9e8011d26U, 0x2815d32903fae50bU, 0x533906c7d67328f7U,
  0xf50eeff9f2280ccfU, 0xf315e1b7de110f16U, 0xfd0600e900fb29f1U, 0x1decf8ca091613deU,
  0xe9fdf212fcfccbe7U, 0xeedbf9f9ebf6382fU, 0xa040233f2e0d100U, 0x33f2fdc0e73f1b0bU,
  0xa0bbdf8dd013abcU, 0xf1f9ddf8e3050b60U, 0xbf08f5eff602f3f3U, 0xf1eeeab0f9fe24e2U,
  0xefe7f771e7fccce3U, 0xe9cafac7fce90c34U, 0x1915c63feee101ffU, 0x3d5a0ce4ed7f1f14U,
  0x2c1fe320e62f28bcU, 0xd82707f80507247aU, 0xec2401f3eaf913e3U, 0xee1e8ebf2f31f0aU,
  0xe613e144d1fae3daU, 0xdb01fedbfce60b20U, 0x222bce47fcf3d0faU, 0x40180aded4621912U,
  0x2e15c610ff051fefU, 0xef1ddbfddcfe104eU, 0xb933ddddd72a3cdfU, 0x21e1f3e7eb0229efU,
  0xf54ad66ac0ee49e4U, 0x3515f95ab4c45c1aU, 0xebf36807e30beb13U, 0x36fcdc07447f01e9U,
  0x1e11fa28ebe60225U, 0x1d452c321c9e2730U, 0x7e62369c14bf7c9U, 0xf22e81badf2f5c6U,
  0xe62bdb3bc5e535e8U, 0x2c34213de3ec6707U, 0xdffa7e4ce8b835f6U, 0x2e3604fd576435d1U,
  0xfae6fe2ed3fe2607U, 0x1761332b29a43e2dU, 0x1f160d5dfe150cc8U, 0xea51c320b8e447caU,
  0xe623ce43c80b45dbU, 0x33280b4fedf65922U, 0xf912474404d7172bU, 0x6a28ea04323e27d7U,
  0x11030a3cbc27fe14U, 0x3315202a3fbc394dU, 0x5b80961c11433dbU, 0xd317c219befb4bcdU,
  0xda36c44ad8ef2ff3U, 0x2a221e17c8c55c20U, 0xeeee5032c7a72cfaU, 0x64eecb3cfe5b38abU,
  0xf8081f55cada231aU, 0x84a04151acc2e21U, 0x1f94fd43de2500c5U, 0xdb33c035a4f33ae6U,
  0xb732c743a2fffefaU, 0xb222337eee364f6U, 0xf8094210d7ed5a12U, 0x612dbc0f406e05ceU,
  0x7ec1e74def20323U, 0x375e2e0d48d14029U, 0x4798d311d8440cd4U, 0xcf10d228d7f235cbU,
  0xcb13e7f107db0400U, 0x3f01b03edea0c23U, 0xd7f93cef14dc04feU, 0xed17d71e1be6f6cdU,
  0xa4bad8e3c7c8d4dbU, 0x1307070c161739ebU, 0x1718d21fd52e20efU, 0xc127a108cfe71eb0U,
  0xe623e512c7e111e4U, 0xfcffcc08d2e800ecU, 0xc7b3fc119bba411dU, 0xae1f0112cef06c6U,
  0xa5f3de1c9606c9e0U, 0x83c0709fbee01d6U, 0xdcd30e1be043fbe3U, 0xb83bd511cfd224b0U,
  0xe2240adfdbfa02ddU, 0x80fe402e5beed0bU, 0xe0fc01fa01a42631U, 0xf7a6d30e34fa09b7U,
  0x96cc0716d419cbedU, 0x537f3f923c7f311U, 0x116c50ac03d13f7U, 0x8f23d2e5b0a80fb9U,
  0xe9e6a431c0cae5b8U, 0xecf33ce4e8ac060fU, 0xd3ed110feacb400fU, 0xef06ec290c19cfdfU,
  0xaaa91b04dfcdd917U, 0x390a1be907c42c42U, 0x1a0dfcf0fd0df0cbU, 0xaf55c92881bb1eb5U,
  0xfcefd7f9d6cddcdeU, 0xfaf710ddf5ee48fcU, 0xe7fa0b1af4ea4f45U, 0x7f5aa273a3ffbdcU,
  0xbad7194df118d51cU, 0x1a200ee618f22e35U, 0xf706fbdf0522ddaeU, 0x892caffa99b853daU,
  0xdc0dc8abccfdfbbfU, 0x7decdf8b4bfd807U, 0x4c14f817d405d4a9U, 0xc3160b32978601e2U,
  0xddcdcba4b0e017e2U, 0xc1f00bf6a3e515daU, 0x21fefdbe509e6deU, 0xe7c5ebfe090bcef2U,
  0xcf1bfaddd00520a8U, 0x140bfb0fb7e4d7fbU, 0x3bf41df8d4d6bed1U, 0x8910041cf8aef5ddU,
  0xe59d2fd89c1afb08U, 0xe41c162ab9ce04b6U, 0xec10e204e91e0bccU, 0xf8d2f6f2f3f6bdedU,
  0xd33ef9b3e746f0b1U, 0x1037e317b6c3fd28U, 0x1e12200df4deb5b8U, 0xc5efd734f9c106e0U,
  0xc3c6f6febdef0d02U, 0xdef92f28c6cb01adU, 0x4cf9e418f92bede2U, 0xffa7ee2bdddedbecU,
  0xaafdc8c8cc13f2c6U, 0xe71bf1e0a3b9fbd1U, 0x4919e303d0c4dca2U, 0xde1cc963c4810da3U,
  0xd994239db9d9fc15U, 0xff0b08e9cdbafef4U, 0x25f914f8da2527ddU, 0x2c4ac05e8fccadaU,
  0xc2f9bdf78a18da98U, 0xfd1025f0c5d80a11U, 0x3c41d705bdbd9fb5U, 0xcb07f54ff4d418b9U,
  0xfc0c19cbd212f211U, 0x6011ef6e6a82bf1U, 0xffd2a0eb60e07d5U, 0x3e5b6e7aa14b0adU,
  0x17c93ef90bedf8f1U, 0xcde102cf13e9f5bbU, 0xe1edcde901ecdf35U, 0x5e3d3d9d3f5e5f9U,
  0x2934c4f323fc0dd2U, 0xd6ece7d0f641f5f3U, 0x12604fc01edd116U, 0xeee621a618ecf6f6U,
  0xf5b219f1fbc0aaf3U, 0xbdc5a5b30eefe3b8U, 0xf2ee97ee02e2d411U, 0xfffe9eada0edf05U,
  0x16ffabf31d03ec9cU, 0xfaf1b093e107eae9U, 0x2408e0cc06e7dbecU, 0xb4def59dfcdef4faU,
  0xf39ff4d7fc849407U, 0xa99410c315e1fadaU, 0xe4fce2f6f3fcd9ecU, 0xce5eee8f5f8e211U,
  0x7f0acf81dcb0ecdU, 0x9f8cbb201efef23U, 0xe3fffae1e5fe04fbU, 0xdbcddc8116fc1302U,
  0xe4b3e308d9aab3e0U, 0xcaa01fc714daf1c7U, 0x21faaaebfef3f2f8U, 0x15efef2af836e7e4U,
  0x15fbc50ff0f908bbU, 0x2907bdb81200f401U, 0x34dfeddbeafdf2e1U, 0xf0eddaa1e6192cfbU,
  0xeca7cfd4c9aca1deU, 0x97b427a6ede103f1U, 0x280ae7d010faf5b6U, 0x25f500ecebfae8c8U,
  0xf126da33e7f8f8d2U, 0xf8fba6a402bdf4f8U, 0x14b2ee01e9f6fbf9U, 0xac01daa3cbfc2f07U,
  0x17bd050ee327d109U, 0xb7cc23c0f8f6f3c9U, 0x19398cef2e0cf8d2U, 0xedfa2eec02b1c728U,
  0x11fb210fd9330ce9U, 0x9e8e3b62df3ff02U, 0xf8ba2d9b0801e105U, 0x32ed0bf5ef1b200dU,
  0x2a95e7eb0121dc09U, 0xbece27a5ec0fd8a6U, 0x192b90db033e0294U, 0x23f92dc801ddeffcU,
  0xf2102027e54b04f7U, 0xd1d8bdcf2706ead7U, 0xf7da38b928e9f9f7U, 0x23fdfbf401082206U,
  0x9d309e01024c90fU, 0xc6e31693f21d0ee5U, 0x292981f03353efb2U, 0xfefa39aef7f1e4f5U,
  0xe3e7f509051904d1U, 0xf1e0b1c12201d3eaU, 0xd0d846a60ffefb06U, 0x1bf906eb17fd2f31U,
  0xad6f6de1d3dd8f2U, 0xabdf1dc3f42df7dcU, 0x453598ed265ef991U, 0x1dd023a2e515eef3U,
  0x10ea1e10e93d0cf3U, 0xf7fdc2bdf9deea25U, 0xe0e12aae36e9ddfbU, 0x25202ac82e23380dU,
  0x2c0025cf114edb0dU, 0xbec7fcc21a15f6e9U, 0x1d3f970a0a63f088U, 0x3d949aeee06ea2bU,
  0x12012111d0440300U, 0xd527debd10f01307U, 0xbefc14c94321da41U, 0x37e81b0145f11b12U,
  0x1cb21d2b3bdad830U, 0xc2b6fa9e314211f5U, 0x3c13d44e4a12010fU, 0xa1b23012b016009U,
  0x123fde2005fc26cdU, 0x547c4b3f204053dU, 0xeae6348143512c24U, 0x39363df32f241929U,
  0x420a17412cb1f325U, 0xee14aba3e024625U, 0x2ad1da58133a051eU, 0x43564ef80c3d680bU,
  0x1f2cde0e07e53cd9U, 0xfd22e2e10e1652faU, 0x160e0de34d403037U, 0x272231ef1954380bU,
  0x12c11e05feeace21U, 0xd5e01ed0f7351f04U, 0x2806eb3a201812ecU, 0x31523335506f612dU,
  0xf3df0d4f22f56a00U, 0x2456f9d849012b34U, 0x1d2e12b3f64d7c24U, 0x4142f0e104f422eU,
  0x29cf085a0d02d62dU, 0xe3e204d8141310e8U, 0x10ebbb211f2e35faU, 0x2c2849105a627e2dU,
  0x5541df1f03084620U, 0x861ccb747316240U, 0xfa311394032b7f02U, 0xef5742113128431dU,
  0x2ccdecddf823df38U, 0xfbd00bc0121415e2U, 0x1dfdda122f12440cU, 0x635a4e163e323210U,
  0x32eed71c2d0d6909U, 0x536afe10221451cU, 0x270f4ed93a2b6b23U, 0x351b24fb035b461dU,
  0x215dbb8f444220bU, 0x2b14b2281b10efc5U, 0x906e8ed08fbcf0dU, 0xc7e5f0e3dda8f603U,
  0x19f83fa9eed4f429U, 0xd1f30d1bc1fdffeaU, 0xf8fdcc02fcfc0fe7U, 0xe90d064303e3b0f9U,
  0xdfdfeea3fdf202ecU, 0xe8039d270d0cdbd9U, 0x1406e104f2d9c201U, 0x8df4cb0bcf8513d5U,
  0xec1f418912ddea35U, 0x6fb0d0eb0f8e8ddU, 0xd5d5d424f0f9f7d7U, 0xfcc9ee3d07ef96d5U,
  0xe408cafbee080301U, 0x18e2dd0af109f1dcU, 0x17e40deddad7bdf1U, 0x8c17f51bd3a90401U,
  0xf7331789dfefe937U, 0xfe0313259edbe4fdU, 0x1ed6e711fafd09edU, 0xbb07f415ddb3f3U,
  0xcdbe1c2e121230aU, 0x26ffbc100ddfe4c8U, 0x3150cecdad4a3e4U, 0xaaf3f116d2aa0002U,
  0x93630a0f807e728U, 0xee4ec25b9d4e6d0U, 0xc9f524d7df0aecU, 0x36a30f01f1f281e2U,
  0xf70ad412fe1fe4f3U, 0xdcfc03e9f41df3ddU, 0x13efdf10d4dc9de9U, 0x870501e89cb7f607U,
  0x2202ebc031fe752U, 0xe6e3e71eb0cce0e1U, 0x9d8001cdce4e0cdU, 0x1e9500110ffe95d7U,
  0xfa06087f051dfff8U, 0xfbfbf7f90df02726U, 0x1919d30100fbff09U, 0x120cf8e0ff430101U,
  0x30eee06e311fd02U, 0xeb08ebfaf9131149U, 0xf1ea01ddf61503fdU, 0xf6eeefec12060201U,
  0xf3090065fdfdfd07U, 0xf6fd09f20c151215U, 0x2112f1380de7e70fU, 0x230bfffdfb390409U,
  0x2818f000ec2007e8U, 0x32be2f5f1141c27U, 0x70412f0090e03f7U, 0x600f9ea1e1afafbU,
  0xff03f23c030be5efU, 0xf8e7f80318090325U, 0x80ff20b12eafd18U, 0x232210e807400b1fU,
  0xf50e001307fffae6U, 0xe128ffe2ed101d44U, 0x2f5ede5f9210ff1U, 0x10701fb11edf8fbU,
  0xe0a670701ff02U, 0xfbe804071cfa240fU, 0x1108dd2ff4eefe10U, 0x131704fce347102aU,
  0x1d1cfd00f0151601U, 0xe11903fa0bff054dU, 0xe61010f3080f0b04U, 0x104f9f40b00ff0bU,
  0x80b152bea0a0cfaU, 0xe6fdfbed02fa1219U, 0xff2ade380605f513U, 0x13fcfaf903460c29U,
  0x240e030b070816f8U, 0xf40efbfbf50e1f37U, 0xe627f8f40915030dU, 0x1eec12db0efd12eeU,
  0xf5df170908dad5faU, 0xced6f2e31501fab9U, 0x71ef1eb08ede023U, 0xfce506dfd308f010U,
  0x120d8efc04fde69aU, 0xd0f7d0e2050ee603U, 0xeb0406eaf8e9faf1U, 0xfd91e9c2603eefbU,
  0x2cd001afcd5b9f8U, 0xd3bad2ba0aeb13bcU, 0xf4dfbeec0700e20dU, 0x10f3e8c8d82ff2e6U,
  0xd018903f503eb89U, 0xc8eeb0d0dcf4f3ffU, 0x7e501ca01fed2efU, 0xc9d3e9a10afcf5f5U,
  0x8c21a04fea9befaU, 0xb7d4eddcf9e708c7U, 0x305d4f6f9f7e8fcU, 0x2be2f7dccff9e5ecU,
  0xefd387f709c2fd81U, 0xd203c6ce0802f91cU, 0xc6e4f0caedf4f4eaU, 0xdfe5e38b14030606U,
  0xecb9e72bf29eaffcU, 0xb2c506cce3d906b8U, 0x151ed1eceeebfad9U, 0x3ff7f2f9fa3000fdU,
  0xfb07a8110611eda0U, 0x1911b5b70dfc0e29U, 0x34daf5c9e9f2e9f6U, 0x6e4f8a3fcea2effU,
  0xfccde1fadbbecbf3U, 0xc4d025ad06f404c6U, 0x250fdbf409f900c2U, 0x41f9ea0f072ddce0U,
  0x703b629e714dfbeU, 0x70fc7c704e10312U, 0xf1cc0bd9f5e5efe5U, 0xdbfad48fda051f02U,
  0xeef50c53fbe8e2feU, 0xeae710d9eef6db43U, 0xa1ef7fbe500d509U, 0x391debcef050f30bU,
  0xff07c102082e22f3U, 0xf0fecffaf90ffb33U, 0xf623040307f50e13U, 0x1206fdc204e8f9dbU,
  0xe6f3fd54ee0bd900U, 0xe2def5d702feff24U, 0x1f03cefef6e5ef02U, 0xd2006b9da4c11fcU,
  0xa18bbfb110b0ae6U, 0xb28ddceef08161fU, 0xf509fec4060f36e8U, 0x8faf0eef30318fcU,
  0xf90ded36ea1dddf3U, 0xe9f0ecd3e3ee1d3cU, 0x8fd170bf8d2f2U, 0x13fff9b5d61d120fU,
  0xfd06f412f72718d5U, 0xe016edd010131d27U, 0xd328fbfdf21e15e7U, 0xeef5f4ddf31a2ae2U,
  0xe4fb017ff2f8ceddU, 0xd500e400f5e42b16U, 0x2510dc2ff2f7effbU, 0x292213d6e1573112U,
  0x2228e4f0e3080ebfU, 0xe313ebe3fdff1965U, 0xe433fbe0f82d4401U, 0x3df01f1ebf814e6U,
  0xeef6fc1bf4f7e8ffU, 0xdbf3ec0700dc1a2eU, 0xa2dd315d6eefef9U, 0x1d2deeb6f35231f3U,
  0x1919f70f010931ddU, 0xc024e6d105e94469U, 0xe434e8dffd0c2cf5U, 0x1ee9e3e8e9ec07e6U,
  0xf53adb3cf9f007e4U, 0x271a2d2bdce8410fU, 0xe8f56218ea013aeaU, 0x39fae6111272f802U,
  0x4ea011fdde83014U, 0x71623320db71d39U, 0x1339f628f21529daU, 0xff32f80ec8060b01U,
  0xe231da47eb042dd7U, 0x1b273837d0f64a14U, 0xebf67b3af3f614f2U, 0x271de5f3077801f1U,
  0xf7181335daeb37feU, 0x2922144233c64522U, 0x9f5db61ca3723c9U, 0xe50ce01edcf622e9U,
  0xbb1fbf3ab8222ef0U, 0x3b250f2abf03510bU, 0xf5fa2f2c08e52c0cU, 0x5031bc1d05250cc5U,
  0xaf40c34d0f41703U, 0x362d2d392eb15b5cU, 0xf0ddf45f23802bdU, 0xdd3ec004d5ee3ce5U,
  0xd433bd70b1ec09d9U, 0xa222d35ecc83524U, 0xe5ca4cf9f7d516f0U, 0x2322f015f8522dd5U,
  0x4cb2526ece9fa1cU, 0x104a1b3308814b4eU, 0x1edef914e62100f3U, 0xd008eb20cdfc5a03U,
  0xdb17c139abf60af2U, 0x10133111e1cc200aU, 0xed033c1bfab41aecU, 0x44f5f6133a6837afU,
  0xfde70e4ee0ec0bfdU, 0x29251c3533c4394fU, 0x27950b00d628fadcU, 0xdd38c91ec0d443c8U,
  0x2e430a7082406fdU, 0x10ff60efe0de2e6U, 0xebdf0105fc02d903U, 0xa50e000f01920607U,
  0xf2ff01b4000c041cU, 0xe403f9dbd30401c7U, 0x801f400ee191af1U, 0x1ffef70d24fec7feU,
  0xfefe35c106181300U, 0xf411f90dedf8dff5U, 0xe3e4ffff00e7eef1U, 0xa10c0216f998090bU,
  0xf6f4f1c5e8061221U, 0x170ef6f4c30c0ceaU, 0xb05ea0cf4fe1ef1U, 0x26f601fb3310dfefU,
  0xf00027d2f42e05f5U, 0xf8110317f902def2U, 0xdfc103fc06f4d2f6U, 0x9b13f015f0a21104U,
  0x51d09ba02f50200U, 0x19fadef3d10809d3U, 0x1a02ec1cf1fc1bdcU, 0xbec13fd16fadbfbU,
  0xfb0823b70e1a1de3U, 0x1004fe0208f2d1feU, 0xfdd9ebfbf2e8dbfcU, 0x9efaef27e68113faU,
  0xeefa0dbbed1e0427U, 0x700eff5d710efbfU, 0xde5e00de00001dfU, 0x19f105173504d4f1U,
  0xf80617db06280edeU, 0x10031406f300e400U, 0xf5e60affe3f3d501U, 0xbe09e713e4ac000aU,
  0xe51404d7f50ef921U, 0x3f8ededeffcffdaU, 0x37f0f8faee0813f0U, 0x1f04fe0823eec2ecU,
  0xe4f9138cef3d3215U, 0xe14ed06200686d5U, 0xf73ecebc2b0d13f4U, 0x15ae07d11b9ff50eU,
  0xdcf703060dfce421U, 0xcdb2001a04ef9cccU, 0xb9c509f323a5c70fU, 0x2210beb17211021U,
  0x8020db2f6f7070cU, 0xe7ebbee4261596acU, 0xf252c4cc2c2cf7f8U, 0xf7be25e505b1f80eU,
  0xf004dcfc3d0be500U, 0xef81e2e9eff29efaU, 0xe902f9db28b9da08U, 0x300416dfed0dfbf7U,
  0x37dd181dfb99ca1dU, 0xeabe1afd2efdbdd2U, 0x1139f6ac031cebf2U, 0xf70ffdca0be2f10cU,
  0x1c31e9f1f712e504U, 0xf0bef6e7f8feade4U, 0xc0e916fcefafefedU, 0x1303fcc3e91df829U,
  0xef04e8ab21230917U, 0xf5f1f9141023d9ddU, 0x2d480fdf3313eeeeU, 0xe3ba20f6ffcfc314U,
  0xf7e1ffe62402e4dcU, 0x3a5dae9e8e0b5dcU, 0xe0cd1fff16bbe1feU, 0x39fb0dd32816f526U,
  0xfee6e2fcfdf5f8f7U, 0xfafd32e1f0f79cbcU, 0xfc3815d2f538e0fdU, 0xe6e00fe3f0d1bf25U,
  0xff7e9085ebbfcU, 0xe296030ad8e5a5bbU, 0xfed6fe0cfb92c016U, 0xfeedfaccd5ffe818U,
  0xf443c76fccec1ee1U, 0x442f0c4fcefc4546U, 0xea066d22e4100bf6U, 0x301ee6f338412be9U,
  0x1003fe0ffce11fedU, 0xe3443b222bd15728U, 0x329035acd304d06U, 0xf812e2ebd11e07efU,
  0xf64ec943def84ae5U, 0x4a32ff34faee4906U, 0xeef5471ebce12823U, 0x1323f80d1e2c41bcU,
  0x161cfc15cd0524f8U, 0x14a313f3ea3540bU, 0x162ff04bc31f37cbU, 0xed2ae81c9df85cfaU,
  0xcd36ba14cd2a3409U, 0x354ed326c0e406fdU, 0xf00740f9f5f7180aU, 0x5003c815354a2abaU,
  0xf9fb170f0e0c2c0fU, 0xfd3e2c4734c5130aU, 0xe7ebd443ed2120ecU, 0xf925bb06a9eb2900U,
  0xd50db94fabef1ac8U, 0x2e192225d2d7191aU, 0xe9d030f8bff01413U, 0x2d17d6f72914219cU,
  0xeef6f744c4d91afeU, 0x29380e242c8d441cU, 0x18d10946cf263abeU, 0xcd43e928aef338baU,
  0xb40ea819d9f11304U, 0x192d040ef2dd0c04U, 0xe4ea2406d7bc523cU, 0x3bf6fa284a2e2d97U,
  0xd4d0195ee7f80b1dU, 0x2e0e14131faa0b17U, 0x1d81e821b2300cb5U, 0xbc56ad1ba8042700U,
  0xe810f6810d1d090bU, 0xfafdf1f9ff07b910U, 0x9eaf7d3fdf7fd0fU, 0x8defcdb11a6defbU,
  0xe2f502060007e2feU, 0xf7b7f90c0e039cb6U, 0xdeea0c0f19cbdb17U, 0x170bfbf104edfff3U,
  0xfaf60da2f308fefdU, 0xffece7e6ff079be5U, 0x230dbd10905ee04U, 0xfbd2eddb0fb4fd15U,
  0xfbd0edf00802d3e6U, 0xab2f6e20207c1e0U, 0xf30cfaeb1cafd924U, 0x15fe0ee10915f3fbU,
  0xfaec03d915e5ed1eU, 0x1f312e40dfd9fe4U, 0xfae4e8e301100205U, 0xf2eef1f10bcedf0cU,
  0x1c07daf805f9d813U, 0xf7b0fee90affc9baU, 0xcb09ee0300c2defcU, 0xf900f3d30b040c01U,
  0x12f3fbc304220a27U, 0xfd02010703e9c3eeU, 0xfc1dfae416f7f009U, 0xe1e6e7f4feccf910U,
  0xeed9dafd2ce5eae7U, 0x3b6f4e0f4f3c3c5U, 0xf208f0fe1ab8ed17U, 0xffff8d9f9120416U,
  0x19e317eefe05fc01U, 0xf4ed1ff2f30bc4d4U, 0xb0f05ddf9f2e40fU, 0xe0d610ecf3c0ffe8U,
  0xfe2501051212eaf1U, 0xe2adfbeef810bbb8U, 0xfa0f1005fbaeedfaU, 0x1df3ffd80cf60106U,
  0xe8ef9e40e00cffbU, 0xc6ca149f0eea05c0U, 0xd91491d110f5f52eU, 0xf0f4eb04f6f5ff19U,
  0x281fc7e42012e4d2U, 0xccf1c1c5f70b0305U, 0x252de0e6e7e900fdU, 0xdffc18b8eefb0900U,
  0xfabf01ccf0dcd011U, 0x95a5d0b7f701f4b4U, 0xea15bddced01f217U, 0x28eed1d2deff010dU,
  0x24f7b01931f3ffccU, 0xfe0b290d701eed5U, 0xd06e4bde80ef4fcU, 0xe4ed08ccfcf30b00U,
  0xefbcf2b7efd4d51eU, 0x81c31897230c02c4U, 0xef1399f8f3edc5f1U, 0x2bf1edd8e2e2e603U,
  0xfd02a9fd02d0ddceU, 0xeded98970b05ef11U, 0xf5e6c51407e513U, 0xe70dc7e4fa1a01U,
  0x1089d7de11fed71cU, 0xa8c213af19f3eec9U, 0xb1c94d1f1d6d8e7U, 0x8dbd70cf20afafeU,
  0xf30fc9f707f5dda7U, 0xe1a9b9211801feU, 0x29faf1dce700000fU, 0xf01e1abe52146f6U,
  0xabf6e5d908ab09U, 0xa7ae18b60712f6dcU, 0x1813cbf3ffe1e7ceU, 0xffe0ffda00fddcd9U,
  0xff1fb6042a090bcdU, 0xf2fba3a510caf3f9U, 0xfbe0e1f8faf8f8e1U, 0xe8fe01c1e20f3de2U,
  0xe123d2b8130d0518U, 0xd03f6050af9a00fU, 0x171008ce19f5030cU, 0xabfe901fac604d6U,
  0x1ff4081222f7d3feU, 0xedb2120ef8019abdU, 0x2eb07fbebbbf1fdU, 0xfcfee8fce10bfdffU,
  0xf801f4980af2f02cU, 0xf8f700ed240ab601U, 0x32de7b9f41a0801U, 0xe6f60bdc03c9ddfcU,
  0x4edf5f51ff7eaebU, 0xfda5fde7fdfc99e4U, 0x4e4fbf8f581ed16U, 0xfa00f7f8eaf90113U,
  0xf0faebbfebdff21fU, 0xf0e00ff739eb9906U, 0x1012e2e0f6f4ee0bU, 0xe2eaf4dcfabb08eeU,
  0x23fbedef14e1eff0U, 0xf2aaf7d90b07a2b8U, 0xde001bef089af105U, 0xb02f3f9f914f50bU,
  0xd01ed99f8f6f53dU, 0xf3ea0ffd110d9ef8U, 0xf080db121fbeb17U, 0xf4d5f7e30ac7e9ebU,
  0x1efdfff051deeaecU, 0xf3a100fdedf6afc1U, 0xeb07feff238fdc20U, 0xd0a0d051121060cU,
  0xe030aaa07f8ff2dU, 0xf203f9f70e0caef7U, 0xff1ef8b4f820fe0eU, 0xe9dcfcf804d0ecffU,
  0x80ae4f443eccef6U, 0xeaacf5e6f304b8afU, 0xff112d0111a1f625U, 0xe9eb12f8081bff26U,
  0x102209ffc14ff03U, 0x50617050201e600U, 0xfdf117faedf5c5f2U, 0xba0c10f9e298040aU,
  0xfef908d1f70a1414U, 0xf50e07fbcf1700d6U, 0xd7fd031bf518181cU, 0x1acff50011f3d8e7U,
  0xfe16bc0bfb15edU, 0x1804e30ef7feeae2U, 0x7000e09f0eacdeeU, 0xa611f7f3e681070bU,
  0xfee4f2b70d1ff5faU, 0xfff80a0bcc15e9e0U, 0x1011ec0204fb180bU, 0x15cb0212230dc4f6U,
  0xf71720c11afc0dfbU, 0xf9062411fce4f4f6U, 0x7ee07f5f008e404U, 0x9b0aeb03f4a116f8U,
  0xf70419c4ec120e0fU, 0x11ee0fffda15f7c4U, 0xa0f05190d051113U, 0x24e6f7fe0606ddeeU,
  0xff211fa7f80509e3U, 0x1faed04e7efe0fcU, 0xf50f2416f8eee3eeU, 0xa1faff10f99c160cU,
  0xedf3fac2e9100c10U, 0x7fc1516de0a0ad4U, 0xeaefe91eee111814U, 0x2ae3f60010fac207U,
  0xf02225edf3fe10efU, 0xc0b2816feefed03U, 0x6fb16f903f8d4e7U, 0x96fd05e8d4980c14U,
  0xfc08fbc7e515fe09U, 0x7ef16fdda0709c7U, 0x10f10b10f8f70c05U, 0x13cd040107f4c4faU,
  0xc615e01ac0db41b5U, 0x281bf125b7c0f9deU, 0xecd3e3e0e4d2f6edU, 0xc2ddd03d7deecfbU,
  0xd1fffdebd5ede524U, 0x1b1be70ad9c211feU, 0x5aada31c6f7e7cbU, 0xfcf7061804d401d6U,
  0xcc260f1bfdf515ceU, 0x333cb156b6de11ddU, 0x21fd26f9eca302f1U, 0xd818b202e4d703bdU,
  0xdece22e0d3040a16U, 0xf0401e27cef524d5U, 0x6f3a67f9718e69fU, 0x2afef9f0f0efeac3U,
  0xd8fceb3ddaff3cc6U, 0x15210238d9eb1ed4U, 0xfbf1240ebaabf0f5U, 0xee0ab1ea05e6f2ebU,
  0xce38f2daca15f922U, 0xe6181e300bc92be7U, 0xe5c7e27bd8f80cdaU, 0x2f2dfd3dde8d1d2U,
  0xb71d13efe51d1cb0U, 0xe406c815a9d230eeU, 0x620f410d2c209c9U, 0xfc17adede4e113cdU,
  0xc1bd08dfddd0d40fU, 0x70b20fe06d80b1eU, 0x38cd32fc60a1dccU, 0x1df2edf516efed8aU,
  0xb64bfc50e2eeeecbU, 0xf4dd2330b5ec040aU, 0xfcda28e1eba1f4e1U, 0xea2dbf1b0615e506U,
  0xe4370716d13dd9eeU, 0x12f645eefc1c0fU, 0x1992dd739ef8ecb5U, 0xf50cd2dcdcef0cc8U,
  0xfde4e7cf08d0ee06U, 0xfafaebe89012e8d9U, 0xf5fed3e30e0f20cbU, 0xf6da26ed13f0b4b8U,
  0x8cb4ef25a220eb15U, 0xf2e5f829c4d1fcU, 0xcc9743d33beeab2fU, 0x924ece9ee191005U,
  0xf6d1dbf1eee0c9ebU, 0xecec02e88108e6d1U, 0xf8ff0df3ea20fcb7U, 0x6dc07e916f7b5e0U,
  0x92c7e30ea13edd14U, 0xfe9d7f22e9ff6e9U, 0xebbc49f122cdce21U, 0xe4091bdacee205fcU,
  0xfad3bcb1eeeed9e7U, 0xe6dedbe9ac05decaU, 0xe70ed6df112320b5U, 0xaba05fc05decbebU,
  0xa2bde31ba61de3d2U, 0xde8d3e332cff3dbU, 0xc4c32be01bf4cb1eU, 0xfd24f1f0f5e81121U,
  0x15edb805f2bcc3ebU, 0xf3da00d899eeeed4U, 0xe0f6e9e4f82a35d2U, 0xf1f61d1b2b18dcc0U,
  0xb3c8d124b606db05U, 0x33f3cb0517b81909U, 0xe9b940cc1af9c129U, 0xf3fb1a0ada100ffeU,
  0x9e8c5d9efd8db04U, 0xe5d919d7941b1dc0U, 0xe1feeae6fa2e3d9bU, 0x7e42ae82f2ab0e1U,
  0xb7f7f905a610dee1U, 0x1e05f6161f86011dU, 0xc4cb4bd7290cc436U, 0xe80ff3ebc8ff1936U,
  0xc809f344eecd17e2U, 0x3da24f7adf4552eU, 0x31f34f3cff7e6f4U, 0x3befdef12154de9aU,
  0xeeb3e01bb4edd401U, 0x140f040e06f23c35U, 0xef26bf06f139bbffU, 0xffbc6f100f2f3e7U,
  0xa50e0e67accfefbfU, 0xe9e81815a0b4262cU, 0xedc5fa13c4d2f61fU, 0x1bb9b6340a24c7eeU,
  0xc2f2d71ad6f7e8e1U, 0x1125ecfdf4fd5226U, 0x1a2adf1c0106e7c2U, 0xcb50cfeff789078fU,
  0xa11cd80cc31814c3U, 0xf210e3fc9ac41a0fU, 0xfb232affae9a3e54U, 0xfe9cafe63408e3ffU,
  0xac93e82eb61923e4U, 0x1252ff193a145555U, 0xe6099907d40415e0U, 0xdf1a08f9df9d08f7U,
  0xc5f4b26fd1bae7b4U, 0xdbce7fd7daed7231U, 0xf4e71f1b95ff1b36U, 0x2acbf2485e71ebc5U,
  0xbdc9ec11c6d0f5fbU, 0x5f70d6dd20026060U, 0x4f25e7c5ff30d7f1U, 0xcb1de80cf1c432a0U,
  0xc1eecc5d0fb7caeeU, 0xeec824e6d8dd7a02U, 0x21e092dcbc93321U, 0x3499b01f3e2a0303U,
  0xc6afd13bc50dfefaU, 0x4d44dff237c86b58U, 0x14e7bae3bc5bd3f6U, 0xc322bd3fcfd13202U,
  0xf5edff6df6fdd800U, 0xf0f0e0f5f8f90618U, 0xfd1ac11ef9f9fc04U, 0x191d0dc4e24e1fe9U,
  0x1711f610fb1107c7U, 0xebd9e8e3e7001538U, 0xe9f8e7e3ed1b1df2U, 0x26f2f2dc05f906faU,
  0x9da0a750608ebe8U, 0xf1cef5fef6f52c1aU, 0x211ac6f6eafae80fU, 0x2702fdcff26837f3U,
  0x1c0aeff3eb1d2cedU, 0xe320ddcbe80bf921U, 0xf2fef6f1f60453feU, 0x150505ee01201c03U,
  0xeeff021df20df5ecU, 0xc9eefdf6edf8100cU, 0xfb07db26e9eae20dU, 0x31ddf8e1f6520ce5U,
  0xeee6c605fc102de5U, 0xecfbd3dbda0c0e4fU, 0xc50debd4dffe33eaU, 0x10d7fceae70012fcU,
  0xf1d5e67ff010c8e3U, 0xf2f2f6d7fbfa280fU, 0xd03f11ae400eaf4U, 0x403afdd0fb533b0dU,
  0xc2cc6f5f4fd32daU, 0xf813c8e2faf6f155U, 0xe532f1eaf6f931f0U, 0x15dee7cae5f418edU,
  0xe1ddf936d913efe6U, 0xe0e403efeced0510U, 0x14f6cffef2020202U, 0x48ebedd9dc564dfdU,
  0x1bfef018f00f3bc0U, 0x207e9f6cef20a65U, 0xd743f8edf01250f4U, 0x1ae5f5cbd3f915e0U,
  0x34b1115c14d5e90dU, 0xd0aaf89826113719U, 0x140399090d4727e2U, 0x37270c290d4065f8U,
  0x16120918252053fcU, 0x1657a6f00420521aU, 0x14f8318107271738U, 0x190b0600294f3927U,
  0x24fe0f6e20d2c245U, 0xfac320ca29051218U, 0x2df90d12ff1026dfU, 0x3639301812386f17U,
  0x1a1f2b1408fa4a0fU, 0x3216b8c31d1f4e07U, 0xff282fbf20476722U, 0x1028fcf7045c4d1bU,
  0x32073b0c1802c148U, 0xd2ee1da4f6391f20U, 0xfe0bef4e21093df7U, 0x1236103a09225334U,
  0xe13e42920ee4c05U, 0xf241e0e907182f1aU, 0x2ef8f2a3273f690bU, 0xf102c13fc363837U,
  0x1ee82b6f0508d638U, 0xc0c8229b09162c2aU, 0x16e7e209f60d0ae6U, 0x48622c140b585e19U,
  0x2647095315162915U, 0x618d0f6102b470eU, 0x53026a13e602f0aU, 0xf43d03fcf314393dU,
  0x25e50ed42ff4f832U, 0xb7fadbd6271c15f2U, 0x27fda65700261c07U, 0x313905e60c395331U,
  0x3a09f2124bf05b03U, 0xe0db2dc31f20914U, 0xff1232f20845543dU, 0x4a2500d6fa143839U,
  0x29d7ff3f4481ce09U, 0xe6e927e1101a2306U, 0xf3030527351b280cU, 0x3fb0f14fe3c12f4U,
  0xc2210f3fb231610U, 0x82621df2d20301fU, 0x2ffc2be23c1a0f36U, 0x62745223230314aU,
  0x47cf30221ab7c917U, 0xf5d504c912452608U, 0x2437193a432dfe30U, 0x537093634142041U,
  0x111e123b1c17430aU, 0x310df9fa082d1a05U, 0xcfa37d1102b4213U, 0x1c330d26192c1b07U,
  0x1fcc073218a7ab4aU, 0xd3db35ef1e1e3416U, 0xfff05d3f0a1300e3U, 0x391d001c141a0a30U,
  0xf31cfc15104f3e0bU, 0x372908013e21502dU, 0x25fe382b0e40222cU, 0x60936102e4408fdU,
  0x3ebe0d2f2dfe9733U, 0xf3cbe6d01113f8f8U, 0x1917f3f9253afbf9U, 0x2e19fc1538362305U,
  0xfb1b072403da3dfcU, 0x2a2eaede32fb3406U, 0x15f229871a390a0eU, 0x2d2221070d342d26U,
  0x69a090320dda925U, 0xbabcf09f2d2701edU, 0x3e8001e20152dfdU, 0xf413a0414102124U,
  0x2423db2d01281afbU, 0x15fcaef0effb2ce7U, 0x37f00ff0291a4d00U, 0x191b21e4f23425fdU,
  0xeedef5d9db08b7e0U, 0x97bad8d801fdfacdU, 0xc7dea1f7e9e60938U, 0x17e9f3fcfaedededU,
  0xf82af6ef1303f3e2U, 0x60ca1aae8fddff3U, 0xf628d6e2f3eef1f1U, 0xf110f3e017e51ff6U,
  0xf8b5fcdedd19b4faU, 0xa38409a7ef1609d3U, 0xc0d98108f509fefcU, 0xe0fd9dfe1fbf7f2U,
  0xf8fcdd15110bfce1U, 0xbbff8a87e2e3eccaU, 0xf400d0e8f00ee400U, 0xf004e1dbf6080be7U,
  0xf9f1fac0ebfac0eaU, 0x9596edcc13e0fddfU, 0xe904afdcd9dbf7f3U, 0xf700ffc004ce0cfaU,
  0x1be7f3221be8edccU, 0xb4018bb712ce0103U, 0xc7f101ded801f6feU, 0xf4f2e310e1e903ddU,
  0xdbddc8d6e607c0f7U, 0xb3c8f0a7e8f002eaU, 0xfc1d880afbe7fac3U, 0xbe50c0fe2e111d9U,
  0x707eb210ff20100U, 0xfa0a8e9c08dafb20U, 0x2f7fcc3fcf2f7cdU, 0x22e4ddefd80c08e7U,
  0xe9c3bcafe51bc809U, 0xc1990db2ebe5e1f6U, 0x2707d5fee2d5d7a1U, 0xf207eb13120b0fe5U,
  0xf1f0100d71b000fU, 0xf3eebc8f0abe03f1U, 0x4f009bfdfeefbc2U, 0xf9f5ed19ca0c25e4U,
  0xf6e40666fb0ce5eeU, 0xecdff0e30cea2307U, 0x1015d5ed0ff8f60bU, 0x260cf6e4db2f0902U,
  0xc0ce309051702e0U, 0xf80af3e90a0bfe28U, 0xd707f5e7f2e907f6U, 0x1ae1ffe8f9ee13f6U,
  0xf9dd0e6cfb12fef9U, 0xd8e8ecd8f5f61f13U, 0xd13cc090bfed705U, 0x26ff00bbea501704U,
  0xcffddfa010b12d8U, 0xe818d7eaf5fe0206U, 0xfbf9fee5ee1210f6U, 0x1c09f7f0fa061ef0U,
  0xfcf20c2df00fe603U, 0xdbf102fdf3021615U, 0xfa1afb1ff7e9d5f9U, 0x2c0408dcdf322315U,
  0xfb08e012f8fc22c8U, 0xf2f0f5d70d071345U, 0xcbfee3e8e80d1ef1U, 0xfe6edf4040816e8U,
  0xf900047ffc14e4f3U, 0xeee1fe02f4f11111U, 0x180ced38f8f2f603U, 0x24190bddde5e1c00U,
  0x281fd8f90d202aeaU, 0xe91ef8fad804275dU, 0xe217f8e100051de9U, 0x9f2f7e9fce42be7U,
  0xfce1ed26f306f6ebU, 0xf4f708ebf4f41501U, 0x51cee21f8f502feU, 0x2917f2c2ed481605U,
  0x1c15f01b11fa33dbU, 0xf5fbeffef4f01f33U, 0xd72cfcea061c27fbU, 0x20e3f2d5f1f214f4U,
  0xc6d1d7efbadff2caU, 0xecf116d3e1ce0501U, 0x1728e00cf3b4f681U, 0xf124da09e10d11a7U,
  0xcdf500dbceea15f6U, 0xb06f9cdddc2ec06U, 0xdaffaf0d0f80fd2U, 0xecd9e4e7efffdbd2U,
  0xa4e3ec16bd1a02d0U, 0xf2eaf6f8bad9f2f9U, 0x121befede8c3d78aU, 0xaf9ec1de50023bfU,
  0xe30a04fed6ecf915U, 0x905ec0df8cd15ffU, 0xae8c5f6b31f10d1U, 0xe9e8d001ddc3f5b3U,
  0xb3f3de07ce08f6c0U, 0xdff511fdc5d50d03U, 0x103d208c4dcefcaU, 0xfcd9cf0df5070ddeU,
  0xc2eaedebecdde526U, 0xe915f5ebf3e50ee5U, 0xf5eed1f1e426e9d2U, 0xf1eff1f6f0d4fadaU,
  0xcd0fda12e7c60fceU, 0x6df1ce9d0b8060eU, 0x1921ecf3f9c002b2U, 0xeecedf9f70efcadU,
  0xfa0602f3e9d602e8U, 0x14fc0ae7f3bb2500U, 0x12dfdee0a3fdfbd5U, 0x1efab609d601eb9fU,
  0xbd02d44cc2e8dcbdU, 0x11d72910d8e3fc11U, 0xf5fa210ccdb8efc3U, 0xf93cbd0a05fd01b2U,
  0x424eafcf7fce6f1U, 0x51ddd1cebf22702U, 0xfbc6dd11ac14e9acU, 0xf6ebdff7fa11e8c5U,
  0xfcfb0d68f907ebdeU, 0xd8effefdf710f911U, 0x318c6fd04f3ea18U, 0x161bf5d7db48ee0bU,
  0x6d0050416f3deU, 0xe010e9effa0c1856U, 0xe91de1e7f61307f0U, 0x2ae501c208dd190dU,
  0xf9faff7a08f6eafbU, 0xe4efd8ecf7f21220U, 0xc24ec16f609f60dU, 0x3d0d0bd2fb3ff106U,
  0xf222cbf6f605f5d3U, 0xe824cccbf61130feU, 0xfcfbeed7fc06eff3U, 0x350000e20811fbeaU,
  0xf705fa31f9faf000U, 0xf6ff0bd80bf7162aU, 0xc16e71d08f6e508U, 0x3027f9e6ee23fdffU,
  0xf514c805f71c01c3U, 0xe1feebea00ff004aU, 0xd40bfde6f60a04f1U, 0xfbe2f0cb000019deU,
  0xe207ff5af503eae0U, 0xd4e0f8e0fee21e1fU, 0x191aca29e8f0ee06U, 0x3231fdc0f25b1012U,
  0x81bee12071f29f3U, 0x422e4d5f3f2117fU, 0xf031e1d6f31df7e5U, 0xdf5e8e204db1af2U,
  0xdbfdf530e7fe02eeU, 0xeaf0f4eb04fa341bU, 0xd18e54becf5f8ecU, 0x4224fae4f72f1421U,
  0x1618dd00f5073ce9U, 0xd528f0f4e5f12b5eU, 0xd322f2e4ef141901U, 0xcddf9cdfa0622ecU,
  0xa01e1b73c5cfe594U, 0xceee1f10dbcb3839U, 0x6f00300aecee999U, 0x20db10daed35e101U,
  0xf4d8feb79be8ddbfU, 0x7fee30011d524efU, 0xdd81d005b1471cf9U, 0xf812890522f4e6bbU,
  0xcb1dc459edb7e4b0U, 0xeffa2917d4a85a2cU, 0xdaa62ed78bc82ad9U, 0x1734b335152229c5U,
  0xeefbb9f2bbe0c9f7U, 0x1514fdfd29d2033dU, 0xf2dfd8f0bf20c4f3U, 0xf32ca61ac7c432e8U,
  0xa206c3ffb1ea0db1U, 0xefe90505d5b600fbU, 0xf503f42de8a232e5U, 0xfad9c8f01a0edbddU,
  0xe007e40bba0ad7c6U, 0x2c54d42f10d10b3fU, 0xf1b39612a529caccU, 0xc73ab4e1c6a544bcU,
  0xcadfd174d1bdf2b8U, 0xc3fa48d3f6f5311bU, 0xcef609e6dfb1250dU, 0xfe320b39e03108f8U,
  0xccdc16fbf2f010feU, 0x150ce3d8feea4c23U, 0x74c7d0bfe648f2edU, 0xfaff9cffa8f501c5U,
  0xcbc2b903c49fc103U, 0xc8ec4dced1dd090dU, 0xeae6fd16f9db4ff1U, 0x3929bf4b4b20d1ebU,
  0xeb040d03a202c433U, 0x512de5ea38a82ceeU, 0x76e2fa0ae730daf1U, 0xb62abc18b1c611e7U,
  0x3c006d41a07ea1cU, 0xa4ccf6a4d6fdeac5U, 0x3772a0e7f817fce0U, 0x1603fea2eddcff0aU,
  0xe00cf503f423d6d0U, 0xeceeeba509e4f7f6U, 0xa6d231ae1bd7e310U, 0x5a08f3acd6f10a18U,
  0x2dccedcf15fddb25U, 0x8b94f197f119edb5U, 0x4026b6f0df31fcccU, 0x13f60c9bea0ce4fdU,
  0xdb02f31bda1ce8d0U, 0xa9eae3930ad4f308U, 0xeeed2abb1003ca10U, 0x26ed08adf3052c03U,
  0x1cacdfde1e02e31bU, 0xcea41189dc06d5b7U, 0x432eb8f1002ff1afU, 0x1feb0890e4df03daU,
  0xe0c3dd14080ecbcbU, 0xd4e2d7ce1bd8def6U, 0x81d636bd17f5f72fU, 0xd0c1ebef4011923U,
  0x299c061633ecc126U, 0xb2d10396d92afa95U, 0x2945b4d01c14f2d7U, 0x3be73a8a031aefd1U,
  0xfde1dd38f14dffceU, 0xe108c1980bbaec13U, 0xd5e21ead3503d239U, 0x1d0df8acc7173407U,
  0xecc04d036f2f21eU, 0xbda4febdd31f01bdU, 0x3b78d9e00a0ee4dbU, 0x29ed16aae522dbd9U,
  0xf5fed60fe34bf7dfU, 0xd10fe2a8febbec10U, 0xc4bf2cab38fed700U, 0x3df925bef3ef4f36U,
  0xe8d50db5f10706f9U, 0xe00de4f71d05e8b2U, 0xf4d9cefc09f0cffcU, 0xa3fbe92ee8811103U,
  0xfbf533b8f2c7141dU, 0xd211e5c9d20806d8U, 0x1dd9d8f6ca0d1bd6U, 0xcdb5f525020cc6f2U,
  0xcfd8f6b4f71d05ddU, 0x918d90e13cce5c7U, 0xe8e0ce05f0caf4f8U, 0x9af7cf44d4910606U,
  0xee0340a6fcca0439U, 0xf605f60eef0111ddU, 0x15edae04d20a0ad3U, 0xd5d4e634f2efe1e8U,
  0xe3f9fce8de0befebU, 0xf4eaf5f5fce7ffbcU, 0x5d3ddf5e4def8f5U, 0xa0fbce30dbbdedffU,
  0xfb0032bcf7e9f834U, 0xfdf6dffcdc030cedU, 0x52dfbe0ccf0607d1U, 0xc8da0542feeddbcbU,
  0xe8fffcb4da4102daU, 0xa0abb02fde7fccdU, 0xe207c5f402d8bbe4U, 0x93f5c525be8dfde7U,
  0xf81927c4ebe60523U, 0xc0306d7e1090700U, 0x3fd2c5ebc7fe0acdU, 0xe8c5d8430d03add2U,
  0xeaf0e91ee73c06dcU, 0xf6e7280105d9f4ddU, 0x18f2d3f3e4bccef9U, 0x9f05d73ec6dff3f7U,
  0xfe271cbcf9f8e83fU, 0x801f816c90400e8U, 0x30cfd4f8d4fd05cbU, 0xb6d5f113f7f9d3dfU,
  0xf7f20a7d051608f0U, 0xed00edcf02f9192aU, 0xf1dcf03f2e1d609U, 0x2e12ebb7f04de2ffU,
  0x324c803fe28f0caU, 0xe90bdfe2091cfb46U, 0xd10606f8ec00e5feU, 0xfddfbd314e41fecU,
  0xbf2157efe14d0f8U, 0xcfdaeff5f6f4122eU, 0xa2acf28e4e7f4feU, 0x3b2605cb014a16feU,
  0xf616d2f105350dcfU, 0xdb21eddcf211182fU, 0xf908f7d2f21d09edU, 0x1ce709ef081a27feU,
  0xfc16fb21fbefdff8U, 0xdbdf03d4e7f32720U, 0x1824eb1405ecd509U, 0x3d0a08d7d6370f09U,
  0xfffcffff90f18dfU, 0xf82500e5e4151c5bU, 0xbd18dadfe20d18ebU, 0x309edea0fff11d8U,
  0xd9faf47feb02f4d6U, 0xd906f2d0eefc351dU, 0xe19e80af40ddc03U, 0x331013c2dc5a0025U,
  0x3817dff50818f7f4U, 0xe015ebececf81e73U, 0xdb20ebe2040725f3U, 0x3e2ebc0f6f428e3U,
  0xedf9042ceb14e3e3U, 0xe9e3feef090a2e10U, 0xd23ed1bfee7e900U, 0x492e23f2073f1a11U,
  0x121bfe1ceb0f32f9U, 0xd949e8dbe4f40b58U, 0xd847f1e011171aebU, 0x15eff2edfbf518edU,
  0xaf1d37f172d0df6U, 0xc40727cb0ff137f0U, 0x293ac2051006e729U, 0x23f5e4f9ff4801e4U,
  0xf90b1110fbff0b15U, 0xecfffee401f3232dU, 0xe5e313e9202007f0U, 0x200307dee6150600U,
  0xf0ed12701715eb1fU, 0xd1cc16ba1e0a34f1U, 0x1b2baf1b22fbe021U, 0x4a0111bb0e4ce901U,
  0x1612f4121004e806U, 0xfbfedfdae5031c24U, 0xef0d0ee00bf9e732U, 0x3be819f919fe2a1fU,
  0xffdff5372308e70aU, 0xe2ef13cf0d1f1de9U, 0x281bcff0f414f42eU, 0x33fdfbc5d84ae9e2U,
  0x5040424f6f8eff9U, 0x11fd3c9fefe043fU, 0xfee421cdfb2dfafcU, 0x2ee1fee9fa1c200dU,
  0x18f2f6731f08f11aU, 0xe2fe0fc81d1e23ddU, 0x2923cb10122e010cU, 0x4a1532c8fb63e9fbU,
  0x23f7fe1b131f0a1bU, 0xd918e4f4e50f1573U, 0xdcf901ca1305f12bU, 0x16eafc030afe092dU,
  0xd100d2a1629ee2eU, 0x1e30cd6f20a2b0bU, 0x1f22de1d0d22f3f5U, 0x31fd2bcb083e1520U,
  0x1512f81301071f02U, 0xd338dcfa07211950U, 0xd4212bed29191f1fU, 0x2ce033f22702130aU,
  0xec4127908f5c418U, 0xc9f313b21a3379fcU, 0x200bc0463c010f28U, 0x562403253e6f1f03U,
  0x2c3e2e11f9441514U, 0xfb60dbdd49445973U, 0x39333a99255e340eU, 0x1b483aed251e1d0aU,
  0x44b327743214c60dU, 0xc2df4fef1233671aU, 0x3717e365fd201e18U, 0x3c011a343e731a2fU,
  0x114f244620fa36e7U, 0x153a6b72530391eU, 0x221b33b7364f5435U, 0x2013011b383922eeU,
  0xf00af278162fc514U, 0xc8e80eb11b17382bU, 0x3e2bc960190e0b03U, 0x4d443124ef4442fbU,
  0xcd4fa470f262bf4U, 0x2258b8fc2224297fU, 0x451f23a7e95d39e8U, 0x22fcfaec082e2513U,
  0x1f51265e8fed7f5U, 0xb3c3e7ca02f760c0U, 0x1f44d2223f151d3bU, 0x1066412c2e67393aU,
  0x5c18e22e17033505U, 0xed52c39c0215635dU, 0xeb1930ab19322c3cU, 0xf6ea40ef4411f308U,
  0xf6db422cf609bf0bU, 0xf1b7049bf839750bU, 0x4e2ad23a363ee71fU, 0x28373b0c061f5809U,
  0x4336ca1c49fe6e1cU, 0xd21dc0bf26082778U, 0xf01034c8fc176af1U, 0x201841c43d381505U,
  0xd0cfd20edaf212cbU, 0x1170eeabdd51ed6U, 0x523ce213bdc4cac4U, 0xfc13f2ebc3efdabdU,
  0xd7eae0e6aec9e7e6U, 0x130d130cf4fcfd0dU, 0x1ef5cefbca240dd9U, 0x25e1ce03e2d5ffbaU,
  0xa6cacb2db8f10bbcU, 0xfe0be3d8acda06f5U, 0x4819de21d8c0f3a3U, 0xe911b8fcdf0e18e5U,
  0xc902e703b1d0de12U, 0xf911150debfa100dU, 0x400cfdeb31f17bbU, 0xfcdcc716fcb7dd9eU,
  0xbcefd0f5cefbfaa2U, 0xe8e7e2029fbf0fedU, 0x4e24f80abebb02cfU, 0xf1e4c517e515dbc6U,
  0xd0d70502e1c0efeaU, 0xe602141deeef24f4U, 0x122bc9faa8f316e8U, 0xeedf1f3ddbedabcU,
  0x9ff0ef13c7fe06b3U, 0xfae7fe01afb93115U, 0x1d17f630e2bde1cbU, 0xed05c103c9f808baU,
  0xd30812ecc7ac1612U, 0x909f7e3f9cc2ffcU, 0x30dab5ecc02209b3U, 0xeee1c9f4dbdc0298U,
  0xb905e240d4e7e5c2U, 0xe6f63903a9d7041aU, 0xfaf715ffbbb007bfU, 0xe420b621ea1df1c4U,
  0xdf1deee3c7dfee0eU, 0xfc0ee8f9f8f42709U, 0x2bd1d905cb2012dbU, 0xf5dedaf6ded1e281U,
  0xd7d8e008c82c21abU, 0x1d0a0dc3a5c4f6d8U, 0x665ee825d89dc3b1U, 0xd906cbfdf8f2ecc3U,
  0xdad018dfdde3df09U, 0xe82125c8dbe51107U, 0xe11a7b5980803cdU, 0xe2c6cf1c12e0dac7U,
  0x89cbc304a308e6a7U, 0xfe0c0fa1c7d000cfU, 0x3e21c801ce8ee9bcU, 0xfb03cef0ef0e08e2U,
  0xe0062b00c3e60e1bU, 0x161727e7dbdf1bddU, 0x2ce0b9adc6141ba6U, 0xd7e8e32de6bdd4b3U,
  0x91efe6dad82c119eU, 0xd30be3aff29a1af0U, 0x2727a117ae9df9d3U, 0xbbbb607e6efe1f7U,
  0xdfcd1be2deb61b2fU, 0xa0413e3e81a1513U, 0x18299d94c610f4e8U, 0xf5c9af2fdfb8e18aU,
  0xaef8ceffa808dca6U, 0xad60ab4e8c01307U, 0x3a34e901be9cf3cbU, 0xdf3eb30803fb24bdU,
  0x2ed17d1e69c1631U, 0x282c0ecbd9c12103U, 0x36c59d8b9b2318caU, 0xe2e9d72ae0dc0d8bU,
  0xa207cf42afeec2b4U, 0xefcf3fc2bd930d05U, 0x4137ee2aa982dcd3U, 0xb2bd119e2ec03aeU,
  0xd2000e403cf1333U, 0x1d2828f2eaba3721U, 0x45cda3acac1303bcU, 0xded5971bb5e9f881U,
  0x5411593704b9d004U, 0xeed109f545392cecU, 0x284100182f39021aU, 0xee353e140748204cU,
  0x2c220a25233002f0U, 0xed4b0e1a062117e0U, 0xd848204c370724U, 0x42f127f8622cfd3eU,
  0xa300e4838b13243U, 0xfdc11fa444b6502U, 0x2934234d0855061dU, 0xe26332f4208193aU,
  0x194ae617224435f2U, 0x62d30204cfc313cU, 0x335e0c7f471c072eU, 0x451754f0651a3d14U,
  0x14554c692be0063bU, 0x25eb151b020963fdU, 0x81f001d403c55fdU, 0x33094602174c104dU,
  0x1c34f65320782c1cU, 0xf5272f0c2c3c273cU, 0x5bb3a3727420504U, 0x43452f32392b2c18U,
  0x48380c5836dd390aU, 0x42c0a110f3c2eeaU, 0xfa2737381e4d38e3U, 0x171f333b2a472d0aU,
  0x4867f841fd63f316U, 0x212c06f00f3436ecU, 0x30a55f8363e17ecU, 0x393850e82c3e25faU,
  0x2f45370f131a2501U, 0xf3fa0c1b2c086108U, 0x2a23101a382242d9U, 0x340f21062e0d1a30U,
  0x3d551d1bf0420afcU, 0xed0fe72b023b44eeU, 0xbc4e5f0d31f220U, 0x404c2be944154337U,
  0xdf2fab38dfd127cdU, 0x311b0944d3cc150fU, 0xf30e2051c3ffee1cU, 0x262ef201043a29a9U,
  0x4f6130ae3d033f7U, 0xf0290932f3bb2539U, 0xd15ed31ef4249c4U, 0xf71de5d6bbdf35f7U,
  0xc6388a30f1ce1e00U, 0x36341658beee320eU, 0xedec3630eee109ebU, 0x1223b2f93543f4ebU,
  0xd504110cfdac4038U, 0xd62a283afcb55e60U, 0xf603f54dc33a2d01U, 0xd23cad0bb2be40c1U,
  0xde159df20a1e1affU, 0x342abb2bf4d224c9U, 0xebf65012ecc6190dU, 0x1126ed04f239f4d0U,
  0x4af103ef4db3d22U, 0x61d022831c50a28U, 0x1f19ee36bb0901e1U, 0xf61cf30daaf02be6U,
  0xad3ba537a7df12c2U, 0xb06f92dcfe16142U, 0xe5d36333efd846ecU, 0x5e2ea6184847f191U,
  0xdbc6144bff831707U, 0x434c110333865933U, 0x18dbcbf7cb13ef00U, 0xbbf2c90988b649e8U,
  0xa22a88e3c8cae3dcU, 0x180df7099eca5331U, 0xd5fc33060ca03afdU, 0x2bcfc3f8faff1accU,
  0xea86f55cdfc61233U, 0x161f1b305ca2511dU, 0x1fb4e219d33e4edfU, 0xc94ae31381df59f0U,
  0xe4fb1b34d4d6f8b8U, 0x1f02224e5cb0635U, 0xe3091415dcb9e721U, 0xcfbc32b05200db1U,
  0xa9ddefc9c2260deeU, 0xf03bedf7ebc25316U, 0x1c36da05ff3806ceU, 0xff05e8d0f2d2ebf6U,
  0xb7eae323efcb05a8U, 0xf5f02910d5ed4d1eU, 0xd5ccf9f2cfb00843U, 0x21bbd204090df3adU,
  0xb9efd918d329bcf1U, 0x936e8f91fb65c18U, 0x181dfa0ad9fde2d4U, 0xb9eeeaf3bed4fbe1U,
  0xe6021420c9130bb3U, 0x412e0f8bee61ae9U, 0xed070ed0e6c11327U, 0x793dffefc3ff1e7U,
  0xe3eeee2c0533b2c3U, 0x92ee30a1bd62852U, 0x3563c8ffb5351208U, 0xec1cd7edf8c6e5e3U,
  0xcbd3dd7fefc6e5edU, 0xebe25de0dde62c2aU, 0xd9fc01e4e0ddfb1dU, 0x2bce81d343aacc3U,
  0xf6b1eb05d32cc5e7U, 0x3f35e9ed16ef526eU, 0x4426f7f1c10cf2c2U, 0xc836b1faf0ff47b3U,
  0xbfe9da67c9e1eee8U, 0xe4ea4adbb8d06c29U, 0xf3fddcf6eeb03654U, 0x29feb72c1c6adcecU,
  0xe3fef03ac828afe4U, 0x5c6aedf70bb92f44U, 0x2b2ff4c5f61bbbe3U, 0xd82cf318f1f437e9U,
  0xf704dcab021515f1U, 0xfdd20e14f3deb5U, 0xe601d1fff3f3d0efU, 0xa8f8eafdeca9fbeeU,
  0xfef30b9c04dd0d16U, 0xc809f5e1c4f713c1U, 0xf5e6f7ede61216e5U, 0xe8b5021efff0a6f9U,
  0xf5e1d9cffb13f4fdU, 0xfa1aca030febecbdU, 0x9f3eaecebc3ef03U, 0x8b08f335d3ae02e2U,
  0xf4203abfeefbf436U, 0x13f3fb07e9e202dbU, 0x4d2ee0ff50f07c7U, 0xfdcc0412f1f393d6U,
  0xe0ecd7e9f8f7f600U, 0x716e0f711f7dedbU, 0x15eef203f9eacee2U, 0x97eee630fbd2f707U,
  0x1f51badfff5f921U, 0xef8f120e007f4faU, 0x14f0d513d8f3fee5U, 0xf7bcfa24ede4b3ddU,
  0xcf05e0c1f51918e7U, 0xef03dcfdf4f4d8b1U, 0xf326d7f0e9dcb106U, 0x95f9e546c1bc00efU,
  0xf60a2995f9e8f42fU, 0xebe704f3a1d3f2e2U, 0x13d9def1e0ef07e6U, 0x393fc15f801a7f1U,
  0xdce3e8f6dc16f6f6U, 0xffff2614ed08f2eaU, 0x124f3f3ecdedcf0U, 0xb4ebd62ed3c0e9f6U,
  0xf2131a9ee6fdea52U, 0xd2f91619ddebefd9U, 0x41e8f60eceecefebU, 0x59df00cee0581f0U,
  0xe1dc337d18d00ec9U, 0xfeff1200eec30729U, 0x180ff9f4d9f70541U, 0xdbd11112ee180ca8U,
  0xb0c8d4fee715d0f5U, 0x28f7e2f90b0e5eU, 0x1015d111eff4bedeU, 0x15eef1dfe7ebf0b4U,
  0xa7eb0e6adcd414d5U, 0x50f2c17b1be6044U, 0x10ef09ed9aeb1527U, 0x35dbdcfefa1bd0d5U,
  0xc1d3e012ed43d1eaU, 0xd12ef8fcffbe1533U, 0x152f05f7d717f3fbU, 0xe1f9f7f3d1832cd9U,
  0xbbef173ec0060fc8U, 0xf21c8f1a9eb1312U, 0x1317101ebea8045dU, 0x39c3dddb1b5de3d2U,
  0xa7c5f810c3221ef1U, 0xf748e2fae9e72e16U, 0x3c67b90bbd01e8e5U, 0x1a26fdc7fc8803daU,
  0xcccde46fc9cdcae2U, 0xd9d84eeecff84911U, 0xecf11103beaefb61U, 0x322bc0930681dd1U,
  0xc3cde41eb7f12debU, 0x3671cae42ef03f74U, 0x5547cee1cc5225fdU, 0xec21b3e9bcc51ae2U,
  0xcfcf0251b2b6c6b2U, 0xf7e719e4a8bc3705U, 0xf40a26ecdabb2221U, 0x1c1008412c7f12dbU,
  0xaac9e12101241ec2U, 0x373cdcfb2ee42c7aU, 0x2dfdbfcbf226f0ddU, 0xf106df0003c343bcU,
  0x10f0a81150a1820U, 0x30d0918f90abe0dU, 0xea05ffeafd1608d8U, 0xf4d9150503d505f9U,
  0xfe05fe20f6dbeeU, 0xf1de0c1cfbefc2cfU, 0x10b0dfb0ab3de0aU, 0xef02130402fe05fbU,
  0x1cfbeda218a4ea13U, 0xfaedff04101cd811U, 0xdb02f8c81d1b01e9U, 0xf7d6f0e2f8c5d201U,
  0xf2e8cdf221ebecd9U, 0xf8c0e3eeef01c5e1U, 0xee0923f602a6ff04U, 0xfa0112e7e82cf81eU,
  0x16ff00f818a0f418U, 0xecf31a011222d127U, 0xd5edfbf40df7f4f8U, 0xe71b09f801e421fbU,
  0xbe7d80419e2dbdeU, 0xde7eeeef2e5b5d9U, 0xe719210c07b4e9fbU, 0xe9020de00012f812U,
  0x16e6fbb41bb20127U, 0x5ef10fae40ad01cU, 0xd2de01ce11f4fd0bU, 0xfcc2f201f7d3db10U,
  0xfff7eaf518f3dde0U, 0x19c0ff0efb02b9bcU, 0xf248050f24c0ee18U, 0xcfb0ee3f6fafe07U,
  0x4fbe6b0efd0f720U, 0xaf50903e927c6f7U, 0xe2eef4cb1808edfcU, 0xe8f704ee00d30321U,
  0x9fce6001afddadeU, 0x9c3e6f2f20aaab1U, 0xf536150910bcd9feU, 0xeefa2aefe5fafc03U,
  0xb6f306220aebedf8U, 0xf6f21cf9c5e62d04U, 0xe0ee2e01f4bbd8f3U, 0x26f8bf1d0df0e4f5U,
  0xd8f409fbedffe30aU, 0x2b41da01f5e71703U, 0x1e11cd13c53400e1U, 0xeae1c3fcd6e70be0U,
  0xdf1ac036dde407b2U, 0x30d02fdbfbe0126U, 0xdabb05efdfb6ed1bU, 0x25f1dc1c2f0319b0U,
  0xdee90000c5f2e4f0U, 0x1128f2f6f4e05539U, 0x1002c606f429e8d7U, 0xe219e1f4e2e3e8b6U,
  0xcd11e8f7e20b0be5U, 0xf10f1f14edd6f9f9U, 0xe702171fe2d8160eU, 0x18f4c2e30b01f4cfU,
  0xdff8e317d61ecbe6U, 0xe902e60407f21c3dU, 0x8eed2fa0ceee0d3U, 0xdc27e41cc8d81ec0U,
  0xc6fcca71fad4dacaU, 0xf0ea48dfc2e53fffU, 0xd6f610d8d8014202U, 0x270cebff352eafb8U,
  0xdc90316f3badffcU, 0x333bf3f517c5167fU, 0x60eae3e8e438c8d7U, 0xe31dc80ddc273bdfU,
  0xe908a53cf5cadad2U, 0xdbe034e7f8f13429U, 0xecf2fedfd8f64b04U, 0x3026c921256df2a7U,
  0x5e50937e915b9f8U, 0x1841f9e159e7162bU, 0x12a8ede0ef1c0de6U, 0xa72de246aa1540e3U,
  0xc30e207f11cff7eeU, 0xeee3d21bde2134fU, 0xe0052601d5f3ccecU, 0x1208d2e31e03e2bdU,
  0xdcbad4cece03c2e4U, 0x163be2f1092c2a2dU, 0x2400defdd5e3b40fU, 0xfb1ce0f316c20dacU,
  0xcd0af151ede70fadU, 0xf8fb4320d0ed2332U, 0xd4bd10d791f1fffaU, 0x20ec0724242ac6c3U,
  0xdfc5e8f29ef3fd15U, 0xee4dee1e4f07423eU, 0xf5ffde13be40e0d4U, 0xce1dba1cfab11ac8U,
  0xc30df912c5f619e0U, 0xfa12f9eab72909U, 0xf709fcd4b3b63433U, 0x22dbd7123033d4b2U,
  0xb1ee0209a10ed7e5U, 0x1c0be431fc14034cU, 0x203a9cffc007fd04U, 0xd71cbde1e9a529f0U,
  0xf5e4d171ced1eda9U, 0x1ea43e7ccc55b1dU, 0xdfeb1d07b0d4362fU, 0x35d7df49002dfebbU,
  0xb5befe0edc00fef1U, 0x255ce4f35c05675bU, 0x4532d4ebcc4de503U, 0xd916a308d2e72fd2U,
  0xe9cbe43fcfbfd7d0U, 0xdae636cbeea747f8U, 0xf61dfcdcf2d6592eU, 0x34eadc622e63f8f5U,
  0xbb09f826ae0fe001U, 0x4031e7eb23df4b48U, 0x5124c4feb142cfdfU, 0x9e38d51ec2d61dc4U,
  0xcaefe1b06ecb405U, 0xc3c3fbdcf4efe99eU, 0xd5f494f1ede0d625U, 0x9f8d0dadbf3de03U,
  0xf91ec8f404fcdfbcU, 0xd8f898c602f901f2U, 0xbf7e3e108f3dff6U, 0xfeddf7e2030bfcf1U,
  0x19de7eadede9bf1U, 0xada1e9b905ea0cbeU, 0xcae681f8fddaeee2U, 0x28f9e8c5e020e3f9U,
  0xf100b908f20101c2U, 0xd2f285bedcfbfdf5U, 0xde5efe50505e7dfU, 0xeae1ecf5e8dcfdeeU,
  0x5a8f9d001f2abeaU, 0xa7b5f9cde602e4c3U, 0xeaf89ff3e1f5edeaU, 0x5fcedf7e508e700U,
  0xf0f9d5e7f4e106bbU, 0xd6fc9f9dece8fc1eU, 0xc8e803b9e305e7e7U, 0xf3f800dcddf8fe06U,
  0xf8bbd810ebf3b0f1U, 0xb8c1f9b4e107f9c8U, 0xd12c3dc0ee8e6f2U, 0x3202e8160511ea08U,
  0x1312e813fc1cf5f4U, 0x12f8a0b6f2c61436U, 0x22d906d2f9f5e2f1U, 0xfdf30a0def072ae1U,
  0xe7d7dbe6de05af05U, 0xb4ad1ab9ede916c4U, 0x171dc5f109def2b9U, 0x26f60206f81cecd2U,
  0xfb13ea21f912f1e3U, 0xfd13a3ce11cfea24U, 0x16dbf5f0d600e5daU, 0xebf5f0f3c3ef25f7U,
  0xec19232ee13532daU, 0x2c10220cf2f12228U, 0x2a25301d0bd32101U, 0x360dfa032b60fc06U,
  0x211e3422f7211d19U, 0xfe0b2d190be60a2dU, 0x25380727e51eeff3U, 0x3500fc3dfdf3070eU,
  0xe5181351dc1d29f3U, 0x1e240a0bfaeb1b23U, 0x2b274327edfe280aU, 0x4028ff0f1048210eU,
  0x1f0030290f330526U, 0x10b0f2119fd231aU, 0x1114002ceb16faf9U, 0x3b17f11b16f92d05U,
  0xf7320b38f21d28f0U, 0x9280c02f6e91d1eU, 0x25113d2df2e1060dU, 0x3f15021117561102U,
  0xf293821101a2520U, 0x222c0b2e16e60f24U, 0x2a271625f32314dfU, 0x9320a2305032bebU,
  0xf5061749dc2913edU, 0xb28220bead91dfcU, 0x1b0d481cedd41606U, 0x5a12f20c0f7f1107U,
  0xf6093c2b021e0221U, 0x81116090fdb2b29U, 0x200c00fbea1a0400U, 0xc1de830effe3bdaU,
  0xfc300f29d93803dcU, 0x1411fbf805da2002U, 0x1121291404f4280fU, 0x361ee126fc602313U,
  0x19f725341102230dU, 0xb2c1216fdd52744U, 0x4cf5fff5d50521e2U, 0x20bf328ff061e09U,
  0x137c1a2ecde640dcU, 0x3d3d2453f9f12237U, 0xf10a6748ddf3120dU, 0x2129d20c324d14e7U,
  0x134a2b43fa2a073aU, 0xf9083f3d2ea1152bU, 0x2f4ef36102fb1b0cU, 0x1e37ee27d8f441eeU,
  0x620755ebf94f09U, 0x5a4df264dafd143dU, 0xe822602c0ff64d2fU, 0x4d240507205a1cfaU,
  0xfc0d090afa363123U, 0x3a16666441d31a31U, 0xe6271d4c180e3318U, 0x3f56014b0e1e46eeU,
  0xcd7f0c46f5334c04U, 0x495d3370eef85050U, 0xf41b741ce4cd3836U, 0x3b261a30274123f4U,
  0xd1b1c32eb4b3e12U, 0x2d46486b1cb80526U, 0x2b4f0144dc303d0dU, 0xb47d250e12428ecU,
  0xe86ed14db41f4b02U, 0x4d243b51ff06442eU, 0xeae06f37eb0a0c11U, 0x3b4aeb014e3c3cf7U,
  0x162b422514133040U, 0x1d465b2647ca2616U, 0xff480e6207321b13U, 0xf74bc846c8101203U,
  0xe75adf0bbe0321f6U, 0x5041c943d2f24be2U, 0x905434311ea1911U, 0x6f0de3370e4f18f2U,
  0xe808300a14fa1309U, 0x2b1c3e5a21b11114U, 0x2df10a4ef6382301U, 0x343d229cde444feU,
  0xd1f1f943fcedfcf1U, 0x2f80408c9fd3835U, 0xeb0615cae1c11183U, 0x1309091611edf7d6U,
  0xe8e1e3eeac080b1dU, 0x190ce000d7c62809U, 0x3ce0508dff7e9f6U, 0xffecd2ecf1e202bcU,
  0xc4eec814c5ebf8b6U, 0x3f4e10ab1fb442cU, 0xe0df02e1c7d6e3dcU, 0x1bfafb15f306dbd7U,
  0xdac5f713a7fec9ffU, 0xe1ffd06efd93219U, 0x101ee806b115cbc1U, 0x6d8c2f3ceeb0bedU,
  0xa2f8cf1accf40ecdU, 0x50a0d05c3d6073dU, 0xe0fc15ece7f00013U, 0x13eaf8db0f36dbcaU,
  0xc515f002d10ac80aU, 0xfe07e2e8fbe40f33U, 0x706d40ad527f2d8U, 0xd119c0fabfcf00fbU,
  0xd2cdd31cdeb1c9cdU, 0xdcb80ce0e3cf5a3fU, 0xcf0f0ae3fcdd28f9U, 0x7f0e035153dc7f2U,
  0x6d6e622eee6c30dU, 0x7f35e0d90fc96253U, 0x3403ddefe011f9f4U, 0x7fecd05b31821bcU,
  0xc9fec740f4a4b3f4U, 0xe3d373d1dde33d1bU, 0xd6fe2ce6d4da2a3aU, 0x2ff6e43b0024cdf2U,
  0x25f33aff18d415U, 0x5431eaed24ed530dU, 0x431508dbd40be507U, 0xba18fb10e00716e1U,
  0xdf0902b9e4f617c1U, 0xa09e6f201d9f1baU, 0x3738020bfdf5f4e9U, 0xc721f114c48d2408U,
  0xff2ebd9d0e31e0bU, 0x30c0c06f10405e2U, 0xee0ce619e8070eeaU, 0xf3c8f6dc12f6d4ebU,
  0xe00cecc2daf308c2U, 0x20e031301d9fbd5U, 0x1107ef21dce6f8d6U, 0xc60dec15f8810c13U,
  0xc191f06d5ee1e1fU, 0xf8fffb0aff0508ccU, 0xec1cde12d51925d4U, 0xd3cfdee8f5ea12eaU,
  0xd817ffb5f40f14ceU, 0x1003fb13f9cffae6U, 0x2916e616f8ccf5d4U, 0xf800e832ea9d130dU,
  0xf81111daf01112U, 0xf70f1914161402c0U, 0x1916e30bc81119f5U, 0xd5f3dbf304d804deU,
  0xdd02f5bcdb0305cbU, 0xeff8e50607b4f8d2U, 0x1e19e808d3d9f4d9U, 0x10ef538e28409f5U,
  0xd07f9dddcea140fU, 0x26ff020403fa06c7U, 0xdedcf07c60c15c7U, 0xe8fcd6fff9fdd7cdU,
  0xdc0be0cebd04e3b7U, 0xe2f824080abef1dfU, 0x1310f906efc3edeeU, 0xe60ff21ff68b19e7U,
  0x1120f3d5ed04071dU, 0x108f302ca0904bdU, 0x36f2cd17b90c13d3U, 0xb0e2cce0f8eccdd0U,
  0xc5fb051a09dffbc8U, 0xeaeb0aebe8e026dfU, 0x6eefddfe8f6c1e4U, 0xf4eefeddef0bf0f7U,
  0x6d402d000cbec23U, 0xd902f6e7dc09321dU, 0xc07f701ec18fd10U, 0x1605dde2dedfeac7U,
  0xccf1ec57f2f305ddU, 0x2f405fdc5db4417U, 0xfafcf7e0bec300fbU, 0xfad8bf1cef62f3e2U,
  0xf0fef5e3dde8d2f3U, 0x3b14f9e6fafa3c24U, 0xd07e4d6c306cccfU, 0x1ea05f7e5ddf5b9U,
  0xd6e0d44cd3ddfbeeU, 0xddd712d6d901351bU, 0xec00f1d4fbf413edU, 0x29f2d30423360aebU,
  0xeae2e51ee3c6f1fbU, 0x81ce2d7030c3b1dU, 0x3b1308e3e61fdbe0U, 0xfe1d01e2fdd00dfaU,
  0xd715e858e7f403e3U, 0xb0b7f07d5003637U, 0xf6ca2ceae8f01a1cU, 0x2fe5fc3e2d5e0ce3U,
  0xfe14214efcdffb1bU, 0x1b47062134db3434U, 0x3d1ef7e9db19f70dU, 0xf31d101eede519f9U,
  0xca29dc43e00505daU, 0x21300f8e5fa6629U, 0xe7092300f4ed2bffU, 0x31e2f635075fe404U,
  0xcbb51e5cdbe11b05U, 0x313a030c0fef4449U, 0x44fafdeedb19e0f9U, 0xf2101628e2d03bf8U,
  0xa3c0b70dbcfdd7caU, 0xe1d3f2c20ac91213U, 0xf259b22dabccf0cU, 0xf9f7db46f2dafdeaU,
  0x4a60ee0f1a8d822U, 0x10ead4ccd2090e26U, 0x411fe0cdc72009caU, 0xefcad7f9be06f9c3U,
  0xb5c2ca22991003c8U, 0xe1f727e3e3db231fU, 0x2af9a0ee928d08f0U, 0xe219a80512eb03b6U,
  0xbe0915e4f8c60724U, 0xcf22eaf1f299ff2cU, 0x1522dce69310f5c6U, 0xb80bd1fac5ab24bcU,
  0x81e0dfdac32b02a6U, 0xf605e2e1dd9f2516U, 0x35289fed0189dcfdU, 0xdbc8a227cadae9f7U,
  0xd38e40fe12d73031U, 0x223f9eae601173fU, 0x1a3389d9925022c2U, 0x100cbf005c113bcU,
  0xb4e7b943c917efb6U, 0xf3d61ffef7b93310U, 0xc29ce3ea98fdbdfU, 0x181bc030e02a07d5U,
  0x22222b18fee20617U, 0x1e21ed07fd981b49U, 0x2624d7e4b232ef93U, 0xf2f4c113bece1adcU,
  0x99edda4eb3e0eeb5U, 0xe2e8ea0ce5a33bf2U, 0x1effcb32d3981001U, 0x23efc301f235fbccU,
  0xeac331ecefe85347U, 0x727bbea19b5554eU, 0x4a19bfedbc4212b5U, 0xcf07ba0cdada1cbdU,
  0xce3036ff701e0fcU, 0xf5dce7d7fde83313U, 0x1e2beb1cff02ef0fU, 0x3914f8e8d339201eU,
  0x1b26e61c0c15f6d7U, 0xfcece9f7e416034bU, 0xe0fffd0008110505U, 0x1cf6e8e907fc1e01U,
  0xf30915600e08e004U, 0xe1e8e8defa011420U, 0xc13d939f0eb0226U, 0x3c1114d8eb6f0cfcU,
  0x1b21e5f3e516fcecU, 0xe81ee9dc0c0e212cU, 0xe30affd8f3161107U, 0xcf707fd0c08fef2U,
  0xdf00c15e515d8f3U, 0x605ef14e4070eU, 0x211be737fe080f14U, 0x231ff7f6e8572322U,
  0x50df0fcec0f23daU, 0xe52bf8ebe816f827U, 0xc3fadcf00a0703feU, 0xf6edd80ef60be5U,
  0xedfcfb7feef40204U, 0xf5f7f6eefdf5262eU, 0x170cfd32fff7d90dU, 0x162d11d3dc521717U,
  0x930ecfbf61b07e6U, 0x414fed200ed0b5bU, 0xf309f5fedf1bfd00U, 0xf909fcdf0bdc0107U,
  0xe7f00323ef0cdbf1U, 0x5fa0fe0f209170dU, 0xf10eb3ef2fffb07U, 0x3b0f10ede6620106U,
  0x1c15ef0bed0a21d9U, 0xcd02d9e3fc13203fU, 0xc62d00f40d1ffa06U, 0xafc01e502ec13f1U,
  0xfbda151a1621f1f3U, 0xd2e1e1b3cc26fe05U, 0x347fd7e2230a1d1dU, 0xce5060b0915e7dcU,
  0xdfd4e72109510412U, 0xf0f405f506cfe0f7U, 0xf9e81ec529ead40aU, 0x2d2013d503191909U,
  0xfef419020df6effaU, 0xe4d608d2ec1af70eU, 0x473ffae7e7011210U, 0x1bea0cef0931ecdeU,
  0xd900042bf344f504U, 0x4e204ee2ebae8deU, 0xe3de3fde06e3e916U, 0x140ffff9e6081324U,
  0xffdc0deafb230300U, 0xf9e1dccee226f2e7U, 0x3843fdf6050a2606U, 0x9f32805291de5d7U,
  0xe2edee1af32ef2f8U, 0x2103f2f12ad6ed05U, 0xeeec10e221fbdf20U, 0x3124fcfe08032329U,
  0x17c80809ff26e6fdU, 0xede5fbc6cb28ebe7U, 0x4647e9f81c1f191eU, 0x16f8ffea0d09ebd1U,
  0xdef305270053f9f2U, 0xf70002ee0eb00909U, 0x4da41da12e9f90fU, 0x18ff10dc0d052427U,
  0x28ee04f10c26e814U, 0x6e3fac3d513f0deU, 0x227bc9e21321150bU, 0x26f5320b08fbdbf6U,
  0xe4e90118ec41e1d8U, 0xea0211f210c1fa12U, 0xd9ed19ec03f2f222U, 0x56fd0beeeb0e1528U,
  0xf4d5226e232604e5U, 0x7eef3022def0a24U, 0x3e43ee12e7f9f01fU, 0x1522e6c3cb64f406U,
  0x1714e6150e3305dfU, 0xe30fffc5f22df839U, 0xf2f304dde50704f1U, 0x1fdc02fe0b201511U,
  0xf7e8367f1641eafcU, 0xd4e8e5da29f62e3eU, 0x4b2ac419030cf80fU, 0x3f1502dcf87d1c08U,
  0x2036f2f8160015edU, 0xf71cffda0d031248U, 0xfc0de6eff7201cedU, 0x2dfb14cc2213080fU,
  0xfe0c1039fc1a11e8U, 0xd4fc18eb1a091243U, 0x2923f31eefe9ea24U, 0x481511f30f3426f1U,
  0x60a081ef00d19efU, 0xe421faddf81e2d39U, 0x61900c2f02812faU, 0xe0001db28ed0709U,
  0x4e30f62202c01e9U, 0xd5e0efda2a02491aU, 0x1c01da050be1f00bU, 0x2e331ef4f5732effU,
  0xf2e1b03071c00eeU, 0xd7000d0011fa1679U, 0xd514eed3e13126f1U, 0x17e807002ad601f2U,
  0xe705122e0a0dee14U, 0xf3fbe7dd07fe323aU, 0x726f42d07e9f30cU, 0x42112d030562142eU,
  0x30240418f6282d09U, 0xf014ff0cde004342U, 0x56e9d30c262a15U, 0x2ee210fd29051ffeU,
  0xf7eb153304fc0200U, 0xecf024f9eefa18f5U, 0xc130ddbf4fc12f6U, 0xf00304115ff00fU,
  0xdef9e710fc00dc10U, 0xf71be7e305111d18U, 0x191ef1dafb0dddfcU, 0x190702dd13d811f2U,
  0xe6e81856050bf7e1U, 0xef53e5fbfb001fU, 0x8f42cf7ecfa1cebU, 0x9efec241942ea04U,
  0xe200e5fef812df01U, 0x170dfc02faf70d08U, 0x230dd6f7e50aedf8U, 0x514ef01f8e608dfU,
  0xf3e71d2d041eeef8U, 0xfcf60ffdeb010d19U, 0xe031ae6f4e41501U, 0xffeff2171034f900U,
  0xe7e9ef0cf908e2f6U, 0x510e70000100e2bU, 0x4a19ebe7050bf404U, 0xd1f09f21deb0bedU,
  0xeacf1169f4f8f0e4U, 0xe5ef58e2f100211bU, 0xaf036f3feed15f8U, 0x11f0e431127fe8f9U,
  0xe5fcf01cf70fe60dU, 0x1525f3f3fd041a4eU, 0x6b18f9d5042aeb05U, 0xd0b08020eec03e6U,
  0xedd60e38f716d5fdU, 0xeaf820d907f9250fU, 0x5043df8f5ed17faU, 0xfeed03170364fa06U,
  0xf9f0dc1306fcf1efU, 0xfd22e6f3130c1a34U, 0x3a1fe4c6f61aeb10U, 0x181201ff1fdf0d04U,
  0xd6e6e450d9d6feccU, 0xf5fc2614bce91242U, 0xe60d1ac4decad0f8U, 0xf909c700d126a9ddU,
  0xa3f4db098c01d5f4U, 0xf515f0091bdd4738U, 0xee05f7fccbf601f6U, 0x22ef03e2e3b2f2c6U,
  0xacfae729c9d5fee3U, 0xfcfa1df8d6ec311dU, 0xdbc512d7a6ae0e09U, 0x2202ebfc0143d1ceU,
  0xa4dbda03d4f2e6eeU, 0xa54f0f1faf46831U, 0xd16fc09e828c005U, 0xe913c2fdcbabffe4U,
  0xd5fce000ddf2fce9U, 0xf90a021acdc25af3U, 0xed111400f3b71bfdU, 0xebd2e0030e13e0caU,
